[PAD]
[UNK]
[CLS]
[MASK]
[SEP]
!
"
#
$
%
&
'
(
)
*
+
,
-
.
/
0
1
2
3
4
5
6
7
8
9
:
;
<
=
>
?
@
[
\
]
^
_
`
a
b
c
d
e
f
g
h
i
j
k
l
m
n
o
p
q
r
s
t
u
v
w
x
y
z
{
|
}
~
¡
¢
£
¤
¥
¦
§
¨
©
ª
«
¬
®
¯
°
±
²
³
´
µ
¶
·
¸
¹
º
»
¼
½
¾
¿
×
ß
æ
ð
÷
ø
ı
ĸ
ł
œ
ƒ
ɑ
ɛ
ɣ
ʹ
ʼ
˂
ˆ
˚
˜
΄
α
β
γ
δ
ε
ζ
η
θ
ι
κ
λ
μ
ν
ξ
ο
π
ρ
σ
τ
φ
χ
ψ
ω
ϕ
а
б
в
г
д
е
ж
з
и
к
л
м
н
о
п
р
с
т
у
ф
х
ц
ч
ш
щ
ъ
ы
ь
э
ю
я
׳
،
ا
ب
ت
ج
ح
خ
د
ر
ز
س
ش
ط
ع
ف
ق
ل
م
ن
ه
و
پ
ک
گ
ی
ᄀ
ᄋ
ᄌ
ᅥ
ᅧ
ᅮ
ᅵ
ᆫ
ᆯ
ᆼ
‐
‑
‒
–
—
―
‘
’
‚
“
”
„
‟
†
‡
•
…
‰
′
″
‹
›
⁃
⁄
⁎
⁷
⁹
⁻
₀
₁
₂
₃
₄
₅
₆
€
₹
℃
™
ⅰ
ⅱ
ⅲ
ⅳ
↑
→
↓
∆
∑
−
∗
∘
∙
∞
∶
∼
≈
≤
≥
≧
⋅
⋯
①
②
③
ⓡ
─
▀
■
□
▪
△
▵
▸
●
◦
♂
♦
➤
⩽
⩾
、
。
《
》
「
」
【
】
あ
い
う
え
お
か
き
け
こ
さ
し
す
そ
た
っ
て
と
な
に
の
は
へ
ま
み
め
も
よ
ら
り
る
れ
を
イ
オ
ス
フ
ル
ン
・
ー
一
三
上
下
不
与
专
且
世
东
两
严
个
中
临
为
主
之
乏
也
了
予
事
二
于
互
些
亡
交
产
人
仅
今
介
从
他
代
以
们
件
价
伏
优
会
传
伤
估
伴
似
但
位
低
住
体
何
作
使
例
供
依
便
促
保
信
修
候
值
做
健
像
儿
充
先
免
入
全
公
共
关
其
具
养
内
再
冠
况
准
减
出
击
分
切
则
创
初
判
利
别
到
制
剂
前
割
力
功
加
务
动
助
効
势
包
化
北
区
医
升
华
单
南
占
卫
危
压
原
参
及
反
发
取
受
变
口
可
台
史
号
各
合
同
名
后
向
吸
告
员
周
呼
命
和
咳
咽
响
善
喉
嗽
器
四
回
因
围
国
在
地
均
型
域
基
報
境
增
处
変
复
外
多
够
大
天
失
头
女
好
如
妇
始
委
威
媒
子
孕
存
学
安
完
官
定
实
室
害
家
容
密
寒
察
对
导
対
射
将
少
尚
就
展
属
岁
工
巨
差
已
巴
市
布
师
常
干
平
年
并
广
床
应
府
度
康
延
建
开
异
式
引
张
强
归
当
形
影
征
径
律
得
微
心
必
快
态
思
急
性
总
恢
息
恶
患
情
愈
意
感
成
我
或
截
房
所
手
扩
技
抑
抗
护
报
择
括
拭
持
指
按
挥
损
据
排
探
接
控
推
措
提
播
操
支
收
改
放
效
敏
救
教
散
数
整
文
料
断
新
方
施
无
日
旨
早
时
明
易
是
显
時
普
景
暴
更
最
月
有
服
望
期
未
本
术
机
杂
条
来
极
构
析
果
染
查
标
栓
样
核
根
格
案
检
植
模
機
次
止
正
此
步
武
死
段
母
毒
比
民
气
水
求
汉
汤
治
法
泡
注
泻
活
流
浊
测
消
液
淋
深
清
渐
温
湖
湿
溶
潜
激
灶
灸
炎
点
热
焦
然
照
片
版
物
特
状
献
率
环
现
球
理
甚
生
用
由
甲
界
略
畴
疑
疗
疫
疾
病
症
痛
痰
瘀
瘟
瘤
白
的
皮
目
直
相
省
県
眼
着
知
短
石
研
础
确
示
社
神
离
种
科
积
称
移
程
稿
究
突
立
童
竭
第
等
策
筛
简
管
类
粪
精
糖
系
素
索
紧
累
経
级
纳
线
组
细
织
经
结
给
络
统
续
维
综
缓
网
群
考
者
而
耳
联
肌
肺
肾
肿
胁
胞
胶
胸
能
脉
脏
脱
脾
腹
腻
自
至
致
舌
良
艾
苔
范
荐
药
营
著
蔓
虑
蜡
血
行
術
表
衰
被
西
要
见
观
规
视
角
解
論
计
认
讨
议
论
证
评
识
诊
试
该
调
象
负
质
资
起
足
路
身
转
轻
较
辅
输
辨
迅
过
运
近
还
这
进
连
述
选
逐
途
通
速
造
道
遗
邪
郁
部
都
酶
酸
醉
醫
采
重
量
针
键
镜
长
間
関
门
闭
问
间
闷
防
阳
阴
附
际
降
院
除
险
随
隔
障
难
集
需
静
非
面
靶
韩
须
顾
预
颈
题
风
首
验
高
麻
黄
鼻
龄
ﬀ
ﬁ
ﬂ
％
（
）
，
．
：
；
＜
＞
～
##n
##l
##i
##g
##h
##t
##e
##m
##r
##o
##s
##c
##p
##3
##1
##7
##a
##k
##d
##y
##v
##u
##b
##x
##2
##8
##0
##€
##¯
##f
##9
##°
##ð
##µ
##¼
##¾
##5
##j
##±
##6
##z
##4
##w
##р
##е
##д
##н
##и
##с
##о
##в
##а
##з
##м
##ы
##q
##™
##®
##¬
##ˆ
##³
##´
##£
##©
##½
##²
##¸
##¨
##α
##¥
##ƒ
##¢
##я
##œ
##г
##т
##ч
##к
##¦
##¹
##л
##у
##б
##β
##ю
##¤
##ь
##ш
##×
##ц
##х
##º
##ж
##˜
##∼
##п
##→
##ъ
##μ
##ﬁ
##る
##ﬂ
##↓
##щ
##ᅥ
##ᆼ
##ᅮ
##ᄋ
##ᅧ
##ᆫ
##ᄀ
##δ
##℃
##ﬀ
##∆
##ß
##₂
##−
##γ
##ф
##₅
##₆
##ª
##な
##≥
##ı
##∶
##ا
##خ
##ت
##イ
##ン
##ス
##■
##ʼ
##≤
##て
##か
##ら
##は
##⁻
##⋯
##す
##れ
##ی
##ش
##و
##د
##ه
##ن
##た
##ζ
##い
##も
##の
##と
##き
##ر
##م
##ϕ
##ک
##ل
##گ
##∙
##∞
##し
##こ
##ε
##お
##₄
##ω
##ʹ
##ø
##ف
##ł
##⋅
##κ
##π
##ー
##ル
##⩾
##っ
##ν
##λ
##ĸ
##σ
##そ
##ι
##り
##あ
##س
##□
##₁
##₀
##⁹
##φ
##⁄
##ⅱ
##⁷
##フ
##≈
##ب
##ま
##▪
##け
##に
##よ
##æ
##θ
##ع
##め
##ج
##＜
##پ
##う
##₃
##∗
##ο
##η
##∘
##≧
##э
##●
##ᅵ
##ᆯ
##ρ
##～
##ⅰ
##ز
##τ
##ψ
##↑
##さ
##˂
##♦
##χ
##ق
##ح
##を
##˚
##△
##♂
##ɑ
##ɣ
##ط
##ᄌ
##み
##ⓡ
##΄
##ɛ
##─
##⩽
##▀
##＞
##へ
##オ
##え
##◦
##ti
th
##er
##on
##en
##es
##ed
##in
the
in
##al
an
of
##or
##at
##an
and
##ro
##tion
##it
##ic
##ar
##as
##is
##ent
##ec
##el
##re
##ing
to
##ation
##et
##ol
##om
##ul
##ac
##os
##ur
##ith
##us
##ati
with
##id
##ve
##le
st
##ly
##th
con
##ter
pro
##ig
for
re
##ere
##ts
##uc
##em
as
##il
##od
##if
##ce
##ess
##am
##un
##ated
##ut
##um
##im
##oc
ex
res
##ow
##op
##tr
##ir
was
##tic
is
##ity
##ion
on
##ents
ac
were
com
##ate
that
##og
ch
##ab
##ys
al
##ot
##ag
##ell
##ud
be
##ev
by
##ap
##rom
##ad
wh
##ical
##ain
or
##ect
pr
##ant
##ers
##ib
##ine
pati
##ase
su
##ment
##ep
tr
comp
##iv
##tin
##mp
##ff
##igh
dis
at
ad
##tiv
us
patients
we
sp
inc
##ence
cell
from
en
##qu
stud
##tive
##ure
##iz
this
##ip
exp
##ial
##te
##ay
##ign
ne
are
ind
un
##ific
##ch
##ies
sh
##yp
##ress
##ations
##pp
##ans
met
rec
##fer
ass
per
##ph
##ous
cl
gen
##ort
ph
##ens
eff
##orm
##ear
##evel
##up
gro
##ge
##ore
##ia
##ons
co
##tor
##ting
##enti
inf
##ely
##ary
imp
##ular
bet
sign
##est
resul
##olog
##bs
##erm
##und
inter
can
##ition
high
##oth
dif
rel
par
tre
##ug
pre
ev
##ased
##yl
cont
##and
pl
study
car
resp
trans
de
##ich
##cl
##ese
ha
##st
not
##ver
rep
pos
##ance
##enc
##ose
##ative
str
##ath
##der
me
differ
group
meth
reg
di
##ection
cells
app
incre
these
anal
sur
results
##een
signific
##ast
mod
##ist
##duc
##ong
##ding
##ual
activ
af
det
significant
spec
##ied
which
##iti
sc
##age
##oci
im
##00
##ween
pres
am
all
between
cons
##ression
##tein
##rol
##vi
mic
ar
##able
inv
have
##all
##end
ab
##atin
##ide
treat
compar
cor
int
after
show
he
##oll
##erv
fo
se
method
##yn
##ros
##ari
##one
anti
than
##ects
med
##ach
clin
##ue
##unc
##ight
##yst
fac
##ater
##ates
##ther
##ected
level
##ally
associ
tw
no
protein
##na
treatment
##cr
ag
##ases
##usion
##ome
##ive
##ted
##ech
##lo
##ective
##ator
le
##ak
but
using
##pl
##unction
##ility
##ost
##ulation
clinical
analys
##tim
dur
it
##form
dise
##per
control
##ugh
##cer
el
##ever
##ox
##ating
##entr
two
##mun
has
low
bi
##ard
##alu
##osis
##evelop
##ized
year
develop
been
mon
##lic
sub
dec
des
more
10
##ri
##hib
##ges
ca
##ub
##anc
dep
##erap
may
ob
##ass
##ym
##ree
##yt
red
##action
their
dat
##acter
##ill
syst
##dition
both
##lu
tim
id
##ectiv
##act
function
##uced
##iss
during
dr
##ures
##cess
##ogen
respons
##ism
##agn
system
factor
##br
##ological
gene
##gen
man
hyp
##so
heal
chan
vari
out
##ew
##atic
associated
##ors
incl
##ined
used
had
##uld
disease
es
analysis
20
##ution
##ond
there
typ
data
ris
sug
##out
meas
also
health
suc
concl
ser
up
expression
##urr
##ium
use
pol
syn
inhib
over
under
form
includ
##inding
non
foll
##aph
model
acc
obs
compared
sim
activity
##ymp
hum
##ays
end
##ult
##ization
##ole
ins
##uct
##entif
sam
one
##av
##gr
##ack
risk
present
##ild
produc
##ici
##her
##our
other
follow
methods
significantly
levels
increased
##ite
##yd
##ential
gl
immun
prov
how
time
##ane
fr
conc
##ogr
##itive
therap
evalu
identif
##ob
br
qu
effect
cr
based
##tain
pot
studies
gr
##atory
its
##ail
##ace
tum
##ile
determ
effects
##ants
##ery
oc
path
##ma
cancer
corr
dem
found
conclusion
19
##ish
exper
##tig
specific
different
ep
char
appro
##ments
##ention
perform
12
human
indic
##ectively
##tal
sel
observ
sm
##idence
##adi
##esis
diagn
min
mul
assess
years
##ination
ma
##als
def
##oid
##ency
##ences
##ities
acid
##estig
investig
supp
##mon
report
partic
exam
our
##onstr
subs
showed
op
when
##ren
contr
concentr
age
intr
##erg
##etr
em
##tern
##ov
into
most
##inal
##oph
##ple
##af
##ology
##ability
##ormal
##ber
##ograph
well
pred
higher
new
##arg
##tical
##ork
##ions
induced
mol
rem
##ement
##iqu
decre
##ik
only
character
gener
three
test
mal
##tid
##ently
##eptor
inhibit
##ute
bl
##echan
sec
impro
num
##lex
##etic
term
such
##oma
##ron
col
however
blo
##rop
who
struct
##ible
loc
child
type
##ature
##ound
patient
mechan
##til
blood
rat
fir
receptor
import
ox
sens
micro
##osph
related
##ix
kn
response
##pha
fl
##view
##tit
##ark
surg
rate
del
post
##uction
##ucle
##ord
demonstr
tiss
##amm
##use
##ok
grow
cases
first
development
##cop
mem
##ough
care
fe
groups
##gest
##led
po
##rough
##och
prev
those
##ural
mut
##ior
##ved
00
cd
##ydro
##ung
respectively
drug
vir
##ital
occ
##cep
observed
##ines
aff
suggest
molec
inj
among
##les
process
pop
15
##echn
##own
cal
prim
mean
##ational
role
factors
val
##arly
##endent
fur
addition
through
mg
month
##ured
cyt
techn
medi
long
ran
##aining
bas
ap
ps
##ental
sequ
il
##di
##osed
##omen
##asc
ol
ii
invol
my
potential
conf
sol
95
##ulated
predic
changes
##earch
total
##ains
##osp
##ize
infection
disc
phys
plas
increase
##ful
11
outc
condition
##ivid
interv
##tom
##cin
therapy
##ould
dna
##its
##urs
correl
comb
##fore
adm
peri
neu
normal
beta
##xim
prob
##ived
prop
##roph
lower
mus
##ited
lik
##air
stim
fre
where
gre
##ex
review
##ody
obj
##gan
##istic
##ene
subj
tumor
##ek
mechanism
number
within
##round
##eter
experim
including
##omes
alpha
main
multi
##ds
##ory
##vers
growth
important
finding
##ha
##over
200
so
could
while
14
children
antib
##omy
##crib
##ether
prog
##tained
sever
simil
extr
mo
##cle
##ade
##let
do
complex
##iver
frequ
##res
##ock
##arge
##eng
flu
treated
cap
requ
less
13
##ival
women
##ms
cy
##ric
bec
radi
coll
ext
aim
##ne
##orph
##otyp
hydro
er
period
fib
phosph
cardi
positive
##ily
vit
nucle
lim
##otic
back
##ider
symp
18
ret
chem
binding
30
##vious
poss
##ages
hyper
201
sing
mice
##ores
without
prot
each
performed
##ues
pat
##ps
##ividual
##ascular
pur
some
##ten
##crip
##zym
week
dir
##abol
similar
individual
prom
reve
isol
work
tissue
reported
case
##tivity
av
##istr
hosp
curr
##ale
pe
approach
mm
ci
months
conclusions
need
surv
bre
synth
sev
25
##ety
hem
findings
previous
days
##lish
research
##ness
genes
##iter
single
identified
##oper
##acy
16
they
early
##ymph
##iel
##ise
##ty
dose
four
maj
small
tem
evidence
##oh
major
presence
sampl
mark
consider
describ
influ
abs
organ
caus
##ativ
second
calc
##ality
24
surf
class
symptom
primary
metabol
##ake
resist
lymph
vis
##ocyt
measure
##ically
##itis
provid
proteins
initi
serum
##equ
did
reveal
alth
although
##atal
vol
common
##eth
##ified
population
qual
hep
##las
##int
due
rats
05
beha
cult
##med
##ning
##gf
50
techniqu
sk
##are
##lications
##ross
##ang
##ography
mat
reduced
day
##arget
lip
inform
behavi
arter
und
##omic
##hip
enzym
vs
admin
os
lab
target
ml
differences
##ink
diagnosis
further
enh
ele
rati
##old
##ice
##ension
##ication
trial
##ft
pers
##yz
##ins
mr
lif
##ites
##ogn
##emia
about
##ground
neg
##oles
##yr
##atis
##par
improve
##ood
mater
brain
100
tes
if
background
##oun
phen
##ties
##ately
fem
rece
##ateg
sugges
species
##lamm
17
design
##ressed
##aging
interaction
aut
range
fam
dependent
##tions
##trib
line
chron
following
##ither
hospital
membr
##ych
subjects
der
conditions
lead
press
plasma
molecular
chrom
##ening
decreased
acute
##onal
obtained
stand
##vir
valu
##ulin
##eptid
pattern
##erc
##ength
surgery
virus
survival
particip
should
concentration
##amic
##roscop
prol
ec
polym
##ced
concentrations
ang
expl
##ectr
adv
coun
region
##ained
set
pathw
##ind
prof
est
large
functional
##por
nov
prac
##oss
hear
chronic
objective
samples
gluc
01
001
##tis
##uss
inflamm
##aneous
kg
sl
gu
measured
relations
liver
activation
developed
##az
##lication
phase
reaction
dom
studied
revealed
genetic
##ick
local
diab
again
##osure
##ax
signal
ul
##ian
demonstrated
##arm
transcrip
pain
bone
surface
pub
determine
requir
several
here
##uth
##cent
les
investigated
anim
unders
neur
ir
vitro
quality
sep
##ause
##andom
oper
will
att
weight
sus
life
nec
information
standard
quan
whether
effective
##ield
stress
random
##sp
##ensity
deg
##rome
intervention
rates
analyz
proper
##anced
##asing
pul
his
free
elect
##roduc
body
##emic
relationship
mass
estim
sch
##ire
cle
bacter
##cs
either
##tered
##ivers
characteristic
medical
complet
ref
before
underst
manag
ur
proced
values
pressure
provide
hel
##icient
##onic
against
appear
gly
ratio
multiple
reduction
##ification
##ostic
ren
greater
dim
##lement
injur
##amin
##ving
electr
structure
diff
association
equ
novel
whereas
##ission
contrib
support
current
param
ro
fail
examined
cir
##ocytes
evaluated
21
##otherap
##eu
direct
regul
recom
included
symptoms
synd
##app
same
hist
various
because
conduc
negative
##uk
##ellular
##tory
##tric
##orb
##iven
##operative
adj
psych
shown
lung
##ensive
occurr
loss
40
prec
water
determined
##viron
vi
cent
exposure
carb
##amine
##lished
##ocy
emp
##lob
production
##atus
many
formation
thus
##itivity
known
membrane
##gram
distrib
##ists
sal
##ct
carcin
rele
mort
reduc
purp
rh
##ae
part
##ules
##ateral
outcomes
##eration
identify
ov
discuss
resid
##icity
##nal
flow
##ulations
amp
indep
##elial
amin
involved
000
##of
muscle
viv
##atively
##tif
##ynamic
##rh
exc
scre
ms
cycl
commun
ach
##ption
mortality
compon
sex
strateg
##eric
order
responses
lo
possible
##ude
##eutic
like
heart
##uted
environ
##eters
management
general
muc
##gn
material
experi
22
kin
change
avail
ct
##otherapy
weeks
differenti
##ision
##ometr
repres
difference
vivo
strong
vers
nm
controls
any
tox
oxid
mechanisms
severe
size
particular
resistance
imaging
60
##acc
understand
hypoth
cop
sin
state
rap
pap
estab
outcome
link
models
nan
performance
##inant
syndrome
##olution
detected
##atures
evaluate
stage
compound
##istration
##ised
neuro
##aps
death
mit
overall
##ling
being
success
site
##ylation
##iving
##ochem
##ologic
cm
properties
##iciency
##ward
six
mac
contin
##opath
peptid
enc
active
confir
centr
detection
breast
five
mediated
##itor
dys
eth
short
surgical
foc
statis
preval
pa
volum
inhibition
purpose
value
diet
area
self
sequence
hom
magn
frequency
old
consist
circ
##reg
##elet
therapeutic
increasing
##ie
recent
tra
induc
##ording
behavior
hiv
##odies
##active
men
##lor
##ographic
23
assessed
allow
diseases
family
temper
effic
index
isolated
##ouse
comparis
##tegr
renal
enzyme
injury
block
##aw
##icular
distribution
sw
##iat
saf
ques
##amp
##oses
contrast
characteristics
environment
##ances
sensitivity
administration
##tinal
result
##ogenesis
add
##otype
nit
##asis
##ule
##cept
decrease
previously
##verage
rapid
evaluation
proble
##etes
bene
199
phot
indicate
extrac
##orts
##ode
super
ve
##oplas
cere
containing
status
##tex
assessment
cross
poly
yo
transcription
##ient
gas
amino
pregn
pharm
left
benef
parameters
male
##ergy
stimul
healthy
fat
very
derived
##ogenic
##ta
incidence
efficacy
morph
assay
accur
impact
highly
##ner
experimental
systems
analyzed
glucose
##ull
integr
her
technique
##ces
##ocial
combination
investigate
##ancy
tub
optim
practi
##ended
dev
##inary
##eding
therefore
28
##opt
##osition
##iological
##ust
##ocard
##ours
via
da
##ns
##ides
prolif
##ier
##ids
available
##terior
##verse
##plant
participants
followed
insulin
##ably
better
elev
serv
##line
##ters
correlation
lesions
diabetes
metast
surve
required
cardiac
##eline
sites
##olic
individuals
35
presented
maxim
prepar
##inc
##pr
##enz
nor
secre
coron
inflammatory
caused
##arc
influence
hypert
##ands
rna
mrna
##ulf
pc
relative
##art
types
te
##ey
##tically
##ops
ability
prevalence
tumors
pd
##ygen
lig
##itation
fil
tested
##itu
##nel
program
release
artic
##monary
synthesis
considered
refer
immune
##ially
score
drugs
mar
medic
26
exhib
expressed
heter
length
independent
gam
##tine
##uble
know
improved
##romb
sample
ultr
net
regulation
volume
##tial
diagnostic
animals
adult
bel
poor
spect
hc
likely
trials
comparison
scale
##go
cat
epid
oral
##ressive
field
physical
pathway
percent
focus
impl
features
hr
##ectomy
##omp
analyses
failure
valid
liter
apopt
versus
cause
acet
visual
##roc
##yth
skin
##ibility
##row
ic
subst
##ount
approxim
##ices
##izing
aden
central
##ral
energy
cellular
ventr
then
dam
##ols
monitor
receptors
##ysis
impair
tak
solution
##ves
##roscopy
27
##pec
useful
biom
##iev
ver
##orders
quantit
##order
##red
according
light
conducted
received
##abil
cri
##enous
angi
combined
described
given
transplant
cre
recurr
45
##ones
abn
##mit
kinase
glyc
vascular
them
initial
density
continu
least
##mic
even
##ortion
average
injection
off
util
32
oste
transfer
demonstrate
##erve
intrac
##omal
dist
disorders
##ators
orig
produced
progn
##vement
temperature
recogn
young
##ecting
ill
conv
31
indicated
##cence
emerg
appl
understanding
record
##yro
larg
##medi
strains
regions
nat
sour
abnormal
hy
social
36
90
mouse
##otox
carcinoma
complications
tissues
##tib
median
##ledge
stimulation
biological
mutations
##enting
activities
fraction
asp
##ually
content
might
##da
auth
play
cs
pcr
##rotein
perip
chall
artery
adul
80
##ytic
practice
##eness
coh
knowledge
29
##ocyte
##therm
characterized
events
measures
moder
recover
pharmac
correlated
prost
##rogen
question
##rob
female
enhanced
##iatric
controlled
position
##rosp
baseline
##ising
antigen
methyl
separ
since
guid
##rees
horm
spectr
promo
cur
mix
##ke
minim
pulmonary
thir
literature
antibody
repe
ed
signaling
##iratory
thromb
##bers
carr
represent
would
vacc
nurs
antibodies
areas
ig
epith
dynamic
coronary
48
place
##enced
applied
##olar
introduc
diss
##ales
oxygen
hydrox
prior
suggesting
underw
33
##work
lack
##ture
culture
inhibitor
mid
subsequ
degrees
good
times
invas
often
educ
##igr
screening
iii
##uture
##ont
##tle
patterns
compounds
##ask
made
ess
down
application
approximately
labor
chain
criter
neurons
step
##omas
interactions
procedure
air
techniques
food
##ights
ax
##iotic
sensitive
##ochemical
leuk
measurements
gamma
limited
##ovascular
alter
phosphor
##ables
paper
regression
70
endoth
chromos
##ged
peripher
processes
iv
key
tests
cogn
relev
##ying
isch
##esp
##ustr
fluores
smok
resulted
##orption
ey
underwent
37
right
mel
history
strain
02
fin
##otor
recomm
experiments
few
suggests
complete
et
adults
##10
action
plat
##nf
##last
transp
scores
constr
##ler
intra
na
malign
##ining
##thermore
furthermore
successful
disorder
agg
seg
75
agents
neut
##set
affected
network
additional
cer
transl
##ogene
altern
polymer
duration
##ower
##bral
secondary
##rosis
##lying
##ii
section
catal
##emb
##eta
accum
##ethyl
infected
bir
hal
exerc
34
substr
cov
proliferation
##inetic
##otid
suggested
domain
kid
##ars
increases
provides
sum
##urn
across
sil
prosp
training
kidne
rad
##coh
##fusion
critical
future
colon
##ochond
defined
achiev
head
stem
collected
mir
##terol
ant
hand
channel
espec
##till
hip
peripheral
prote
especially
bm
##bry
peptide
##de
structural
established
interval
electro
##agon
basis
cours
damage
confirmed
##ious
genomic
##oscop
apoptosis
##ld
##utes
selected
activated
displ
glut
##onding
##me
mes
go
arr
plac
structures
##orbid
##aff
testing
desp
bar
toward
##grad
##erved
depend
chemical
capac
proposed
help
despite
remov
cost
sle
##occ
##yroid
##entional
##encing
fold
##ancre
##ave
corresp
criteria
distin
##estinal
retrosp
lines
##bo
seen
detect
##istered
recently
alcoh
lay
setting
respiratory
graf
ultras
examination
improvement
onset
##ored
adap
ampl
differentiation
daily
progression
##ochondr
alone
calcium
##ibr
##agen
aged
embry
metabolic
##iting
occurred
chlor
inhibited
##iversity
point
glob
lipid
##isting
myocard
describe
does
##eph
strategies
real
microm
suff
polymorph
##odes
sci
42
peak
electron
##oint
lat
mitochondr
absence
ra
nerve
##trans
don
randomized
frag
ion
components
38
genome
populations
facil
doc
community
infections
##ergic
od
clear
pathways
fer
acids
dop
##read
depression
##oxid
side
essential
eng
inhibitors
materials
mutation
sequences
##ints
molecules
functions
##ca
postoperative
situ
consum
sn
cohort
bil
pancre
implant
##pt
safety
pig
adh
##12
nuclear
exercise
induction
##pa
identification
##tre
eight
series
transm
metabolism
##ople
fet
necess
load
##50
coup
##atitis
##irus
resulting
importance
markers
sod
##entially
wor
plan
open
still
##ophil
reduce
resistant
prevent
##esth
top
bio
stro
access
label
hours
##take
cytok
cycle
fract
##arb
undergo
older
viral
elevated
concer
pregnancy
transform
survey
##ectives
##ermal
refl
lit
cognitive
quantitative
##ivery
migr
##function
##oding
##ortic
##omer
diffic
delivery
provided
experience
sem
soci
transport
article
##icians
##titution
##oster
##brid
natural
##utaneous
03
challen
host
consistent
tog
cardiovascular
##arding
emplo
ped
##anol
##ef
##ather
##umin
great
##ics
together
degree
kidney
sulf
course
doses
las
people
nut
simple
##olesterol
whole
##uter
states
##ulate
affect
##etry
fluid
medium
clus
reli
particularly
##uv
chin
magnetic
65
##isms
##oz
capacity
products
diagnosed
pp
task
log
##pri
mamm
toler
bacterial
upon
conventional
dig
require
##ogenous
##nas
lear
appropri
proportion
##ument
##dom
examine
antagon
recomb
severity
terminal
##tors
irr
ventricular
43
linked
stroke
##hydro
plant
chemotherapy
adverse
198
cryst
uptake
wild
39
##bp
##els
exposed
##ayed
procedures
marked
##imens
##yg
##ession
repair
americ
##arr
published
questionna
##osa
##oids
##uff
specificity
power
##ched
regarding
special
origin
##itional
##idine
confidence
##icial
##rolog
summ
##ceptib
lact
countr
pair
linear
##cler
selective
seven
biops
grade
##inity
component
internal
double
reproduc
evolution
stable
distinct
bro
##ococc
national
endothelial
recovery
problems
mak
susceptib
protoc
radiation
##ydr
systemic
atp
home
laboratory
44
statistically
##istry
consequ
prevention
hypertension
achieved
carbon
variation
iss
ster
birth
##ove
##ressing
hybrid
monitoring
variables
##otypes
bp
wall
administered
ng
modified
tempor
alcohol
##rine
55
hb
ge
##eti
##ending
strength
fix
restric
##ging
##ems
##ense
sd
indicating
##ret
late
intrav
##rix
moreover
authors
terms
maximum
##neum
##ulating
search
pt
include
##ea
inflammation
motor
tom
animal
cys
highest
wide
04
##oprotein
ear
myocardial
acqu
##other
##rin
mc
moderate
act
estimated
prefer
compare
fas
hormone
##utive
subsequent
mutant
bo
dimension
having
##roscopic
respond
dysfunction
##fs
sleep
traum
41
much
bal
cholesterol
best
reson
relevant
famil
hepat
scan
hs
center
46
along
placebo
anterior
selection
interp
arth
public
ht
##mediate
platelet
72
##activ
##fac
needed
discussed
taken
interventions
coli
cerebral
macroph
##onomic
allel
objectives
intracellular
##uring
epithelial
arterial
gastric
cp
measurement
degrad
liqu
chromat
##atives
cd4
developing
able
rs
##activity
##ectiveness
promot
bound
strategy
repl
advanced
implement
mental
education
approaches
remains
environmental
eu
arg
interfer
experiment
99
fram
appropriate
##encies
ns
incor
ta
alg
##que
pi
world
##rup
conn
prospective
color
52
trig
effectiveness
##oral
tool
##put
matrix
generation
appar
contex
adoles
cos
tnf
adjus
carried
alk
microb
bur
##man
designed
diabetic
secretion
rare
##alpha
##dl
##cc
wid
adren
alternative
##11
calculated
##oglob
pneum
physiological
plasm
hypothesis
relatively
##amide
##otide
subun
treatments
##dr
continuous
accuracy
little
##ique
47
antibiotic
const
full
ter
pm
contribute
amount
isolates
susp
##ariate
##hood
sodium
cand
corresponding
##ee
##sh
transplantation
myel
infants
means
causes
thick
though
atr
gran
excl
systematic
opp
regulated
##inated
leading
spati
datab
var
bacteria
atten
chol
##ets
extent
intensity
facilit
forms
##illary
substan
spe
source
##beta
##orn
employ
half
67
quantif
underlying
##ams
shif
##obacter
##ool
##uration
lys
tetr
##lation
composition
star
predicted
limit
regard
prostate
cho
##eff
directly
students
necessary
candid
third
persist
56
spinal
enter
##esized
yield
transition
eryth
involvement
intern
multiv
reach
##uit
##itude
males
hepatic
stimulated
incorpor
mil
establish
##ope
exhibited
##urb
54
analog
##ectal
##ench
problem
##ella
64
stability
profil
led
mt
view
##io
shows
females
medicine
##iety
last
##land
gel
deriv
mri
neurop
rt
imm
toxicity
read
mainly
vas
##eal
resonance
efficiency
reference
resolution
rab
49
instr
53
liquid
clinically
aimed
##ometric
adhes
##icle
##uded
difficult
memory
complexes
##ometry
generated
##onia
accumulation
a©
occur
enzymes
unit
##53
detail
gast
urinary
##inf
ss
intake
##kn
err
microscopy
alb
images
##onucle
larger
regulatory
##izes
lesion
frequently
inhibitory
pyr
appears
diam
##orbidity
ca2
mitochondrial
recorded
context
lum
shap
##enic
investigation
##erative
##ened
cas
##ector
invasive
nerv
##orrh
##orting
processing
unique
services
##la
later
##iology
reports
conj
simult
anx
##ecutive
reconstr
reviewed
revers
retrospective
ann
rr
simultaneous
profile
transmission
##opathy
emb
rather
lateral
hp
substrate
puls
##tile
##ings
partial
##alian
melan
malignant
##ished
##acts
significance
cerv
tb
##olip
haem
##anes
oxidative
pg
51
promoter
percentage
specif
85
questionnaire
57
resection
global
fatty
must
agent
stages
##iph
variety
fluorescence
##etric
squ
comm
58
##tively
affinity
cortex
##eral
##ering
learning
phosphorylation
##ils
##acch
cath
##ered
applications
replac
germ
assays
responsible
62
white
##ritis
categ
mild
##oxy
microg
polyp
longer
fluor
rib
proj
smoking
63
asth
recurrence
above
iso
dimensional
mob
rou
vess
sperm
eg
olig
metal
strongly
iron
laser
##oxide
##ired
unc
##otrop
antic
prognostic
attention
kinetic
extracellular
princ
maternal
receiving
grad
differential
supplement
tel
relation
clos
reactions
princip
call
eas
neon
countries
vitamin
chromosome
highl
##cers
determination
enhanc
yet
thyroid
reas
soft
certain
optimal
mechanical
exist
hemat
##aine
infer
upp
##xp
##itary
trad
disp
68
59
66
efficient
pass
96
induce
##tially
marker
interest
auto
cervical
assist
cultures
##ively
spont
##den
recommend
specimens
rot
##arily
##licated
0001
undergoing
fetal
spontaneous
##enty
incub
sr
infusion
segment
paras
##rot
##rog
cytotox
predict
phenotype
agon
she
satis
statistical
fed
event
residues
ble
product
pb
tract
##hold
extre
upper
now
currently
bond
profession
acetyl
benefit
potentially
reactive
recr
posterior
dog
dynamics
base
odds
trend
aer
##ception
image
##ream
aw
73
##arin
specifically
predictive
##ula
basal
##uary
american
collagen
way
prognosis
removal
map
majority
##20
layer
core
fav
##estern
points
##artic
##he
ure
members
nine
chromatography
tomography
anat
aortic
vaccine
constit
##ocl
neural
resour
gastro
rev
molecule
onc
intestinal
reducing
##arian
##inations
##dominal
dl
prepared
irradi
involving
temporal
ds
plus
ten
##elling
sexual
##phal
ray
near
##elines
prolong
located
extern
produce
remained
neurolog
manner
ifn
assemb
recombinant
ste
hepatitis
finally
##astic
pse
dm
attenu
polymerase
intravenous
inser
plants
advant
obes
sa
orth
contact
##uls
##ieve
joint
solid
broad
pk
cf
nature
introduction
micros
predom
cad
cultured
ves
slow
spatial
europ
electroph
78
degradation
implications
##ident
##16
##onch
obesity
consumption
##ectin
kapp
##cutaneous
den
weak
retin
##onin
complement
ligand
##to
##gs
gender
##osing
##lyc
conform
##ico
commonly
anesth
anxiety
##ange
discover
pseud
alterations
humans
myc
guidelines
dil
neuronal
adip
##13
aggreg
biomark
living
cb
fit
nf
benz
##ify
rabb
##osin
consecutive
##tility
thor
cc
tend
##ohist
76
biopsy
adjusted
norm
nutr
pancreatic
elder
##tration
ech
69
barri
##ogenetic
contribution
74
person
##itone
graft
expected
##eletal
western
algor
europe
oxide
algorith
##obic
mixed
external
morbidity
pathogenesis
another
sequencing
classification
confirm
##less
immunohist
divid
##uts
##aring
nam
##ocal
manif
nanop
##lasts
abdominal
matched
##olytic
unkn
##adder
dietary
operation
protocol
subt
formed
##itiz
epidem
##aryn
##roup
thres
unknown
fusion
pediatric
aims
numer
become
61
infarc
##aged
constant
83
deficiency
coeff
relationships
radical
agre
oh
attrib
igg
roles
86
##odynamic
defin
elements
98
altered
occurs
##ared
avoid
cis
force
77
disch
##o2
past
##ots
toxic
elderly
##osine
som
proxim
##ls
eye
heterogene
##sis
nas
##itr
cord
frequent
##ontal
flex
abnormalities
delta
interview
##ema
making
maintain
aspects
##ologous
88
##ching
##alk
dele
depart
84
##oring
superior
tumour
decision
attem
##osyn
recip
egf
##ologies
hypox
gp
##itable
##apping
recognition
marrow
peptides
pan
gh
migration
##dle
82
fish
##elium
lymphocytes
conclude
lap
rob
impaired
##most
pac
92
##ytes
exch
md
leads
staining
71
targeted
##isc
targets
asthma
respect
clinic
##reh
overe
phosphate
ga
fragment
biochemical
spectrum
93
obstr
diameter
purified
organic
impairment
##ats
variable
basic
ultrasound
characterization
wound
cereb
account
jap
far
histological
fund
97
pet
around
gal
feed
##esia
nucleus
hydroxy
79
##isation
por
inn
wave
school
87
##immun
units
space
94
lt
##osomal
gest
overexp
hipp
a€
susceptibility
associations
illness
compreh
bronch
urine
##ember
##gramm
accurate
##pati
fibrob
profiles
cluster
##ori
domains
##crim
afric
leg
generally
university
##rs
sed
##ections
concept
##ymm
occurrence
multivariate
document
89
tc
##itud
recurrent
comparable
thickness
physicians
emph
enrol
ana
particles
organization
cav
metastasis
nucleotide
cortical
behavioral
ovarian
occl
widely
safe
divided
vary
behaviour
computed
challenge
absorption
cu
##orter
nursing
pla
discrim
spectrom
pal
international
almost
##clerosis
ful
pen
traditional
slight
##imen
epis
##ra
allows
##otion
##ields
manifest
##aces
theory
##imer
root
convers
neck
numbers
therm
device
potent
ow
##ump
explore
##osite
plays
##yros
cancers
fast
##ocamp
##ga
covid
##ylated
completed
assign
what
put
needs
hydrogen
endoscop
middle
ratios
elim
nanopartic
membranes
vel
optical
pathological
promising
hg
##rophy
##ounts
##ned
##aptic
macrophages
deep
polic
adequ
rapidly
feas
nod
costs
preoperative
families
technology
##ophys
##thesis
emergency
variants
variability
successfully
obtain
##ercul
inst
cv
perf
endogenous
donor
uv
##acchar
divers
fung
trauma
##ophag
##eli
ak
sources
##fl
##a€
jan
div
throughout
protection
twenty
programs
providing
extraction
antioxid
heat
##ialysis
##olved
therapies
defects
requires
offer
camp
mode
cytoplas
adhesion
##bal
81
dental
presentation
neph
##azole
transf
##by
distal
##iation
until
arch
carri
infarction
##used
actin
signals
##inate
##ank
##ulatory
remain
##enyl
stre
##ring
hippocamp
protective
signs
spl
##argeting
##group
media
make
nh
metastatic
spectroscopy
cyp
reconstruction
##ectivity
##ocar
##li
##stream
final
##ients
neutral
subunit
##herence
polar
replication
genotype
extrem
targeting
disrup
##icles
oct
##iral
clon
repeated
aud
indicates
bmi
aug
estimate
##hal
database
##14
amb
##ata
ischemic
##leuk
conver
excess
np
chinese
stabil
##ococcus
predominant
nons
minutes
##cher
comparing
##ician
necrosis
japan
independ
##way
extract
location
soil
observations
rich
venous
categor
whose
towards
az
mum
bu
##iaz
ads
##urine
lapa
##ucid
neoplas
programm
construc
haz
occup
turn
##aves
##apse
subtyp
##osal
abund
enti
prem
routine
##ycin
eyes
experienced
compr
find
operative
p53
benefits
csf
##allel
ischemia
##18
restor
coord
bleeding
##ervation
intermediate
##ortun
venti
h2
##asia
tolerance
la
every
veloc
recommended
probably
##oline
preparation
prolonged
oxidation
nervous
##care
fa
leukemia
institution
orient
##genic
deliver
fracture
schiz
existing
igf
minor
usually
progress
issues
##cents
thym
band
service
##osterone
##urg
medication
earl
defic
##itals
motion
knee
computer
developmental
close
##ompan
element
delayed
blind
soluble
##fa
practic
apparent
##bl
descrip
##ancies
agreement
intact
bladder
randomly
january
##ework
lc
movement
tyros
accompan
##oked
##eds
##tenance
##aline
encoding
adolescents
fully
curve
##olysis
interleuk
morphology
maintenance
##ocation
tubercul
unl
ros
##truct
##thern
##aria
##ozyg
##ophage
appeared
volun
meta
##eling
ane
##ives
##ione
hazard
mill
framework
##opic
poll
##eg
showing
milk
distance
transcriptional
##rel
antig
dogs
enhance
suppress
microgram
break
91
ben
regional
##olds
pneumonia
demographic
synthesized
##ibly
deficient
pretre
gain
synthetic
channels
transient
extensive
coupled
ather
##arv
##ss
localization
cam
perce
cruc
bov
node
##tp
##esh
##east
immunos
influenz
address
employed
satisf
sectional
healthcare
trigg
monocl
##anth
blot
interleukin
completely
exchange
au
arm
proximal
##ovirus
elucid
uter
lam
mutants
##itoneal
tgf
parallel
morphological
phyl
##tious
united
epile
intensive
cox
sat
reverse
emotion
##try
working
possibility
feeding
nurses
##15
prediction
##itus
subgroup
precurs
adapt
##oxyl
##thers
##ichia
replacement
197
excell
phenomen
ethanol
fibrosis
##esting
rights
hospitals
##iform
##gans
antagonist
##oglobin
##anial
autom
labeled
accel
ker
smo
except
##rophic
vag
500
cytokines
cut
##ert
contrac
##activation
cortic
mp
p2
caps
expressing
port
propose
initiation
##rich
##actic
copyr
copyright
below
##hyd
choice
department
shock
attach
##ament
##usc
antigens
##oration
contained
3d
ip
stimuli
comparative
smaller
tools
hla
##avage
atrial
##thal
mh
##atment
lv
skill
reliable
els
##itively
congen
implementation
polymorphism
##17
growing
conjug
lang
fall
observation
t2
injuries
hd
retinal
regen
monoclonal
progressive
allele
comprehensive
ens
oil
typical
surge
bilateral
musc
neutroph
fm
south
pv
##lycer
maximal
psychological
bis
dip
logistic
diversity
tryp
seems
correct
others
mn
##ochemistry
kda
suitable
##19
##jection
##rotid
smooth
pf
dc
sufficient
longitud
uns
achieve
amyl
neonatal
##cles
diffusion
##tum
##kin
tri
perme
suppression
##cal
radio
native
shift
ring
##urys
minimal
##aft
##eck
bran
##a1
##letion
seiz
accept
acquired
invasion
probe
asc
angle
pathology
dors
conserved
##xt
spectrometry
##organ
enrich
##igen
hcv
tun
##transfer
excellent
hf
cytos
##ivalent
##itin
gradi
presenting
added
colorectal
catheter
rhe
society
reh
primarily
spread
vac
extended
##acr
##ophren
vein
escher
independently
colum
nanoparticles
##anine
##idal
lymphoma
##ogens
##ili
communication
escherichia
occurring
rest
threshold
analysed
variations
##osomes
tl
relax
schizophren
degen
predictors
electronic
viruses
dominant
thi
irradiation
##eptide
06
tit
parents
2012
verte
thorac
opportun
concluded
enrolled
gc
##ophageal
mmp
commerc
3h
run
cytokine
interpret
cn
hund
skeletal
infil
hundred
##avirus
theore
tyrosine
improving
##we
##ocarcin
localized
##ectious
contain
##uting
classified
sten
benign
##ias
##ocrine
tuberculosis
earlier
analyze
serious
##atase
beg
aa
##rocytes
noted
marg
hemorrh
##tingu
fif
pros
interf
lps
deletion
substantial
closely
##opa
fractures
subject
promote
eti
persons
chick
newly
amounts
periods
##inking
##atib
lep
termin
discharge
##mitted
recognized
perfusion
##enchym
invers
refr
influenza
derm
##entical
##ythm
solv
bovine
lipoprotein
perceived
partially
admission
modification
fiber
pregnant
##oside
##ompl
workers
##ina
distingu
failed
transduc
focused
##usal
gab
markedly
depth
vegf
counter
##ements
challenges
derivatives
##intestinal
injected
##ontin
murine
adjust
algorithm
##aries
records
limb
thre
whom
gastrointestinal
gland
infectious
ions
intervals
risks
competi
reserved
recommendations
##ensin
longitudinal
glutam
pel
fixed
##atid
opi
metabolites
producing
mammalian
##ches
velocity
regular
##ises
estimates
##acted
##ady
rise
ple
##itted
matter
##yle
##orage
diverse
##ellar
##otypic
bul
european
tail
maintained
yeast
##uvant
nitrogen
aneurys
##acer
directed
hydroph
excre
none
identical
industr
##bc
psychiatric
solutions
2013
zn
childhood
balance
shape
nk
2010
sensory
goal
##teen
face
##ica
metastases
practices
##back
##atter
economic
induces
enhancement
vector
obese
300
devices
##okinetic
sinus
prel
ranging
hydroly
dos
max
circum
height
bc
artif
airway
assum
antioxidant
measuring
##ners
##ologists
ethyl
personal
dehydro
cover
cd8
inclusion
date
##icin
##ril
represents
decreases
neurological
##irect
crystal
##elf
methylation
interesting
behaviors
polymorphisms
detailed
##athy
##rium
exhibit
hap
qualit
dependence
2014
separation
aspir
##ike
distr
swit
##oman
hybridization
example
parent
##patient
seas
scanning
equal
##rec
lob
kill
integrated
variant
##bar
##isions
valve
contraction
ldl
estrogen
extracts
describes
varied
determining
seem
dual
magnitude
##oa
persistent
expand
cdna
sustained
engine
dex
##ame
coding
emission
albumin
author
highlight
dopamine
ranged
jun
healing
pool
phenyl
incubation
wr
questions
thermal
radiotherapy
disturb
beneficial
younger
arthritis
biomarkers
summar
systolic
hour
##illin
indirect
tex
pharmacological
allowed
decline
china
substit
spin
moth
hab
reper
reason
congenital
##ifications
crucial
ast
agonist
##illus
##b1
modulation
once
defect
circulating
gold
assigned
extracted
error
ts
transcript
contains
positively
direction
taking
isolation
##ulum
glycop
knock
subsequently
##robial
muscles
adequate
07
additionally
never
residual
##ows
##ades
granul
##fr
nad
correlations
tm
spectra
fab
chest
mis
ib
teach
hex
elic
##itant
affecting
##otomy
vessels
fibers
##opo
##certain
##tics
persp
##elled
2000
settings
latter
count
consequences
clearly
##olec
##uctive
cg
##ycl
melanoma
resources
##osphate
influenced
facilitate
largely
kinetics
##evier
elsevier
trip
wt
mv
explain
##oin
identifying
##acin
validated
py
cytoch
##sin
vul
axis
rehabil
##queous
gli
remaining
effectively
sampling
m2
repeat
cod
controlling
##be
##ton
storage
bow
##cephal
slightly
arteries
possibly
proph
##ilateral
micrograms
organs
supported
numerous
ket
120
retro
t1
##np
corne
antimic
planning
saline
crystall
steroid
sarc
surfaces
hpv
gon
##bre
08
aqueous
dend
autoimmun
##itory
robust
stat
125
cd3
substrates
reproductive
rheum
ethn
##plasia
capable
delay
acceler
accompanied
##oplast
staff
transpor
pulse
rp
implantation
##enia
clearance
##ban
##transferase
antimicrobial
##ush
conversion
locus
atom
##ister
atheros
2011
uncle
stimulus
burden
##ocytic
nmr
carotid
##dm
noise
##illance
disability
mand
networks
complication
illustr
anth
dispers
functioning
gang
ck
frequencies
##ways
thought
##isa
aging
eb
##udes
receive
wors
black
ras
coefficient
##cribed
stay
assessing
##eless
centers
rod
##oic
fact
austr
possess
ub
favor
##oglyc
expans
##aphyl
##rief
strand
green
##iveness
##ecal
libr
organisms
pic
ni
##err
called
nasal
unclear
appearance
characterize
adherence
insuff
surveillance
lh
multic
hypoxia
transformation
phospholip
langu
2009
150
amplitude
##enes
overexpression
schizophrenia
salt
creatin
regulate
mothers
junction
bac
2015
efforts
##pass
##osens
##factory
cyclic
gir
volt
advances
##dehyd
##upp
presents
##issions
duct
##otropic
##urally
fluorescent
mineral
admitted
##ensions
introduced
##onas
demonstrates
assembly
biosyn
coupling
casp
ulcer
depending
antibiotics
gi
##oe
##ested
pil
validity
output
##axis
upreg
vaccination
displayed
immunore
pathogen
##cap
probability
clar
catalytic
occlusion
xen
bin
fibroblasts
volunte
hair
##entia
cul
investigations
nitr
rehabilitation
##ocardi
##oblast
isoform
fill
fu
mu
dy
pharmacokinetic
sir
fragments
##nt
reflect
reporting
mim
physician
plate
##rose
##umab
scientif
##lux
zinc
sf
suppressed
substance
##exp
satisfaction
diges
attit
fibr
##inning
##ensus
electrical
tp
femoral
particle
done
hm
serve
simultaneously
pelv
adop
##thetic
hcc
summary
reliability
recru
##itol
availability
##hg
separate
attemp
fresh
egfr
p3
discussion
##arrh
##wide
mell
limitations
##bor
assisted
##enol
retention
theoretical
##oresis
##izations
##acent
substitution
considerable
mb
interferon
thereby
restricted
speed
symptomatic
stenosis
north
inher
gover
prophyl
december
fixation
##iciently
treating
gm
dehydrogen
pretreatment
infr
##ropl
pack
policy
##25
users
glomer
analy
##aper
return
pairs
cytotoxic
minimum
emotional
##operatively
thirty
putative
nitric
##mediately
trim
histopath
kappab
##ocomp
##insic
original
prelim
challeng
dementia
retrospectively
##sa
rabbit
ligands
progen
compart
glycoprotein
placed
##avy
angiot
concom
immediately
move
nc
##acet
a±
varying
##lin
multid
relevance
medial
candidate
microbial
endoscopic
##ostasis
express
explored
motif
urban
adenocarcin
restriction
recording
insertion
mature
modeling
##omet
##olin
reactivity
shorter
skills
equivalent
##edic
aids
miss
##teine
embryonic
angiotensin
rural
fractions
synthase
##23
understood
accep
pitu
coc
concomitant
initially
##accharide
documented
09
embryos
suspected
surviv
consisted
##ks
##ipl
sup
gradient
affects
scientific
hearing
infant
foot
gaba
simulation
buff
bowel
neither
barrier
language
methodology
##treated
brief
lowest
tax
check
elisa
actions
##1a
aid
transgenic
african
bias
utility
bypass
display
##uria
collection
cytochrome
##eting
immediate
plastic
tube
diast
##gl
fibrin
poorly
concerning
##oon
peroxid
glycos
unf
evaluating
sections
preliminary
attr
##omycin
##ires
strept
echocardi
##40
mellitus
entire
gap
##osity
driven
laparoscopic
qualitative
##get
cx
utilization
nr
next
walk
deaths
epithelium
seed
rating
clinicians
acad
##rous
pigs
explained
heavy
##wise
ground
##avel
nodes
metall
immunity
##aemia
##amous
cyst
comput
segments
nt
ce
biology
##otr
includes
nico
reached
consisting
##geal
implicated
bind
inters
evoked
depressive
bile
adjacent
pituitary
ba
loop
##idin
ven
surround
standardized
feature
dorsal
overl
loci
died
mixture
400
suic
nearly
cartil
belong
expansion
decl
##isp
spr
asymp
##ann
validation
inoc
##ads
##term
##atif
cycles
charge
dup
coch
pathophys
absol
##ache
apoptotic
composite
steps
mug
elevation
subjected
regulating
experiences
supr
cleavage
attenuated
tg
iod
fol
fever
##lets
##dp
sulfate
involves
mi
forming
causing
##ancer
e2
##iologic
analges
saliv
##aryngeal
##ohydr
art
tur
lymphocyte
synaptic
define
glutath
zone
park
glutamate
instrument
mapping
generate
##usive
larv
woman
antis
improvements
##k1
graph
sv
sera
2008
##57
column
compet
dehydrogenase
reduces
adjuvant
regimen
advantage
##gi
breath
extension
du
inhibits
referred
rc
integration
dissoci
practical
sple
ages
manip
autoimmune
sph
sets
bor
discovery
recipients
untreated
##oints
cytoplasmic
##dh
accoun
rank
mmol
##tures
##oscopy
discre
arab
thin
professional
##dehyde
simulations
emerging
db
draw
constructed
insights
heterogeneity
composed
pathogens
differentiated
amplification
adrenal
stere
nutri
viability
traits
##terone
##anged
retic
excretion
strom
released
dry
##ilities
bcl
##oag
room
##atically
##time
phases
similarly
operating
interface
glutathione
dp
live
predicting
##ensis
ventilation
amyloid
epileps
phylogenetic
##chron
##abilities
advantages
ace
##enchymal
parad
fing
cum
take
aure
##point
lens
squamous
estr
##ury
tumours
alz
##heimer
project
susceptible
changed
issue
electrophoresis
socio
anesthesia
##omical
diastolic
leaf
proton
donors
##22
mucosa
give
interpretation
sti
##veolar
fields
correction
rout
1000
stent
flav
perception
acetate
##ware
predictor
clusters
##tomatic
##ulus
##dna
nutrition
parameter
##angi
array
##mentation
variance
sho
gangl
toxin
adenosine
blocked
vessel
volunteers
ubiqu
##ocytosis
aggregation
wa
##inine
sensor
house
deform
alzheimer
##fp
si
deposition
hsp
plasmid
##era
translation
removed
dimin
##ifying
subcutaneous
dram
absolute
002
aberr
twice
nuclei
stratif
adaptation
instit
##yc
pathogenic
inferior
potentials
aureus
consensus
##wh
definition
##oxin
precursor
commercial
bearing
dihydro
gram
##mental
##tak
tob
expect
hypothal
recruited
cytotoxicity
##urance
episodes
predominantly
##ogram
biof
insight
feedback
##electr
applic
##yte
staphyl
facial
prevented
phosphatase
##abs
tib
eps
##oidal
temperatures
gs
residents
##isition
##ready
caspase
sensitiz
epit
##onate
already
ah
fewer
genotypes
asymm
##adiol
##ips
##omers
obstruction
cry
2007
incorporation
distress
hdl
negatively
cartilage
##opol
distributed
own
epilepsy
distinguish
mitochondria
counts
depends
nonc
ester
reperfusion
chi
##acco
2016
ect
valuable
2005
loading
##igm
focal
cla
remark
thoracic
trop
proved
acquisition
##uf
pall
abuse
##inson
##atch
considering
cns
har
attributed
##gal
feasibility
cavity
bd
maturation
platform
reviews
articles
##ozygous
##ilib
member
##enter
##70
catalyz
spleen
supplementation
##down
drinking
acting
akt
dh
sedim
requiring
##assium
##60
##ilibrium
detectable
relapse
errors
colle
##atidyl
##ze
##rof
science
decreasing
threat
asymptomatic
increasingly
carcinomas
serot
bip
copper
pert
aggressive
fc
extra
cold
track
malaria
adsorption
##atig
epidemiological
penetr
potassium
dialysis
uncertain
##acting
splic
relaxation
voltage
immunoglob
spectral
##opathic
residue
limits
span
subunits
##ry
spine
phenomenon
2006
chains
recruit
tobacco
p4
2d
##ylate
hard
adjustment
superf
align
japanese
remission
rheumat
##break
transfusion
fatig
##idase
preparations
existence
salmon
##igible
##pler
immob
tasks
mach
list
percutaneous
mer
outs
angiography
phenotypes
intrinsic
injections
##ritic
anomal
continued
##ley
curves
guided
conduct
##ietic
grown
identi
reasons
virul
veh
compens
excit
deficits
immunosupp
pyl
classical
arrest
bey
cirrh
inducing
undertak
remod
contamin
##osome
cond
categories
start
war
pump
##ears
beyond
determin
cutaneous
outbreak
kb
mmhg
##oplasty
##oflu
compli
smokers
mobility
##omonas
##zyme
##aster
coag
##enal
subc
macrophage
clones
mucosal
indices
arom
hbv
##oyl
separated
##min
adaptive
nutritional
inhal
mening
monitored
##ipp
requirements
##iae
neurot
beam
carbohydr
estimation
hemoglobin
analytical
##plc
osc
mostly
##etal
lumbar
##choline
hypothesized
aort
pure
displac
word
implants
osteop
traumatic
##fe
chloride
emphas
medications
sched
educational
exogenous
thrombosis
##ilization
uterine
hence
entry
histor
##ette
participation
manifestations
communities
##vascular
c3
##alities
professionals
quin
promoting
decomp
waste
##ulative
classes
##draw
correspond
##weight
proges
buil
adenocarcinoma
options
scal
lacking
cann
fd
withdraw
rar
interc
pelvic
##ospor
trends
viol
##lam
steady
sul
protocols
pent
##ematic
enzymatic
co2
became
typically
inner
##emat
teeth
005
blue
hemorrhage
##water
seek
brom
items
nac
practition
jud
##ief
protease
scaff
##azol
lamin
gall
##hydr
##inea
##entive
peg
inactivation
true
encoun
##uments
##odef
placement
intram
german
##opoietic
extremely
parkinson
##loid
positions
confer
easily
greatly
annual
subset
providers
##elin
##tc
alleles
##ought
##otides
quant
rig
##ayer
influences
delivered
orientation
overc
opioid
thal
rational
heparin
##omat
guide
ablation
dimethyl
ln
detecting
rb
transcripts
idi
##onuclear
barriers
mono
correlate
similarity
cardiomy
embol
sepsis
##max
micr
eosin
##mark
collab
starting
stimulating
regeneration
fatigue
pron
unus
allowing
team
immunodef
depletion
immunohistochemical
library
##elihood
##areness
##illation
formal
biosynthesis
concurr
databases
##unt
mor
orb
preventing
atpase
##edical
version
shr
auditory
esophageal
rabbits
utilized
sought
ocular
##zed
allergic
chromosomal
enab
modifications
film
dic
weighted
heterogeneous
##mod
supporting
hemodynamic
always
veget
##phrine
layers
corneal
auc
immunohistochemistry
##adian
hypertensive
motiv
creatinine
##amination
##oded
##ete
lactate
##adic
##lastic
##uctase
pn
ank
technical
hz
combinations
homeostasis
prep
mast
indicators
solvent
antagonists
##90
scales
##ectors
input
recovered
##amental
forty
awareness
reveals
##going
kappa
land
##27
comparisons
rup
parental
leuc
lipids
##aceu
undertaken
hydr
##opausal
chromatin
circulation
refrac
##romy
virt
##eses
permeability
regardless
chond
fals
likelihood
atyp
outer
coverage
sars
calculations
##urated
vide
vic
clim
software
cation
##olecular
artificial
option
hydroxyl
researchers
epidermal
ips
pip
downstream
2004
aspar
evolutionary
##28
attack
panel
biopsies
contributes
quantification
peritoneal
frontal
##avi
stom
##uch
##ypt
##uses
pand
yielded
contents
initiated
parts
env
income
vesicles
##titis
testosterone
##2a
phenotypic
##30
##ash
digital
gestational
subtypes
aneurysm
sclerosis
##ionic
labeling
plaque
quad
principal
capillary
nar
diffuse
diarrh
bodies
gestation
mess
ongoing
##p1
biomedical
concerns
translocation
resource
hospitalization
substances
movements
uk
##ester
##co
##arth
cham
retri
careful
vaginal
rac
exon
##aden
proven
precise
identity
##ocortic
config
reading
hippocampal
vaccines
##apped
deb
immuno
glass
govern
fasting
flo
leth
arginine
exce
inhibiting
##tead
hippocampus
quantum
##nia
fundamental
##arch
##eps
##chem
rv
carriers
pa€
careg
technologies
examinations
##clc
beginning
##ana
sympath
itself
tlr
##ime
attitudes
visits
degeneration
empir
offers
##ranial
born
##ba
interviews
ile
anaesth
##aints
perspective
northern
##ota
##rane
compression
survivors
##mc
cortis
##entricular
resting
simulated
polys
microarr
##epine
decisions
##ocys
homologous
seizures
crp
scatter
subjective
##otoxin
##lip
##azine
##bi
gonad
##ceptions
ball
etiology
tooth
gn
implemented
lp
##ophosph
finger
supports
pilot
##ograft
instead
##bb
##uron
recruitment
copd
substantially
guinea
namely
doppler
##osyl
ammon
brid
embryo
##itect
##ophila
ram
somatic
braz
limiting
determinants
anatomical
worldwide
enriched
activator
compliance
synerg
encoded
cumulative
##oxic
evident
whe
ho
reversed
o2
refractory
differed
screened
##uscular
observational
##uity
probes
abundance
bot
indications
created
deviation
gave
##ocellular
##eptive
gy
dt
occupational
phyt
##ophilic
##ws
sizes
precip
leak
million
##ote
unch
standards
##ameth
##ibular
phosphatidyl
potenti
##adily
linkage
bic
fore
##amycin
cultiv
constitu
##graph
unilateral
##anti
##astom
uniform
bed
##oming
##21
##ued
surrounding
false
responsive
progesterone
portion
preterm
intes
##rocyte
chromosomes
##24
hydrolysis
structured
schem
2003
teaching
immunodeficiency
parasite
interestingly
regimens
operated
pandemic
lost
##ensities
herein
##resp
insp
attachment
##26
vertebr
pylori
instability
electrode
obst
250
regulates
jour
prescrip
isot
fabric
complexity
oxidase
prevalent
encephal
ones
##opes
surgeons
postn
raised
pren
##ounc
tt
flap
interact
march
mycobacter
tn
microscopic
galact
triglycer
agonists
##80
cystic
changing
environments
##ibration
june
fine
mother
##oxygen
consistently
antiv
perm
gut
dosage
immunoglobulin
colony
favorable
##hs
##agg
gd
extens
complicated
improves
randomised
prospectively
003
##ulties
perman
##uous
commit
##ometrial
combining
maintaining
##anted
malignancy
situation
##ofluores
dimensions
##iasis
dn
uses
leaves
##des
promin
hormones
ger
hapl
##eed
ask
obstructive
exer
##essions
serotonin
demonstrating
##cine
dich
downreg
psychos
atherosclerosis
reinf
screen
##platin
neutrophil
concern
elimination
feasible
osm
adolescent
##embr
correlates
##iction
interference
sud
##anic
adipose
hplc
grafts
closure
academic
##uly
decades
mann
biofil
coated
carboxyl
dissection
brazil
speech
partners
timing
girls
fungal
##yph
cloned
abol
recombination
sequential
filter
##mented
##pread
construct
equilibrium
##alc
ath
absent
mutagen
##vas
arteri
representative
atypical
##ani
respondents
s1
##dep
##rovers
dendritic
##orous
cisplatin
histone
alveolar
comorbid
optic
outpatient
attempt
ultim
wides
photo
needle
hydrophobic
cortisol
unusual
widespread
hyd
##ifer
difficulties
disruption
1beta
tetra
##agland
mesenchymal
2002
estradiol
##ounced
activating
outside
##born
retriev
wk
##ded
atm
actual
films
cig
tag
conformation
wash
compl
eeg
diverg
univers
sou
postm
vulner
tau
couns
demand
transduction
centre
scans
consists
rectal
representing
##tub
##isph
arrh
ways
pts
mhc
tor
fist
controvers
##eded
vehicle
challenging
##romes
reductase
rearr
binds
volumes
##alling
discontin
abundant
southern
##iness
mos
##29
##ardi
hor
platelets
effort
computational
metabolite
elucidate
delt
rotation
subtype
exact
carrier
li
exists
symm
icu
hors
flux
stric
ensure
excision
vital
shared
intraoperative
genomes
text
##quin
ls
tension
##inter
##icients
subcl
supply
son
dyst
modul
snps
##urity
narrow
coefficients
consequence
##ni
egg
performing
diets
##fold
discrimination
see
complementary
##ocular
consult
genus
alkaline
principles
##ato
diagnoses
efficiently
##load
##ada
##ascul
om
##assay
prostagland
description
conserv
##opro
hol
anastom
indicator
ze
morphine
mov
neigh
edema
um
infiltration
law
web
blockade
tab
selectivity
assessments
##oli
nurse
anticoag
integrity
modern
monol
conflic
homogene
##odil
reductions
ly
drain
reflex
trach
rejection
selectively
dox
diph
biomarker
rheumatoid
just
##ilized
priv
endocrine
involve
rf
semi
cyan
accurately
regulator
sound
consideration
##yster
pkc
lr
habit
elicited
sheep
postnatal
infrared
absorb
anemia
locations
studying
pronounced
phag
makes
spermat
enable
closed
immunological
emerged
carrying
country
autophag
datas
##uation
##au
ltd
dd
##matic
faster
eating
##osus
worse
plane
epidemic
disapp
enhancing
trained
terti
inducible
oscill
architect
pep
##ococcal
fgf
2001
onto
represented
suffering
slic
intestine
##holds
##pes
pes
##related
yields
intracranial
ans
gla
precision
genetically
angiogenesis
stop
institute
nonin
follows
##licit
superoxide
lac
transfected
##carb
lith
differentially
nos
remodeling
modulate
##lutin
tertiary
proliferative
generalized
corticoster
cirrhosis
##val
automated
forces
##enari
intersti
incubated
encour
greatest
former
fifty
##ison
ige
ever
tf
##rotic
portal
programme
##iplinary
overview
suppressor
quantify
pharmaceu
uc
epigen
##atile
repeti
cigar
##mg
spp
ent
##ulose
microc
##atum
spor
spher
dimer
##ai
filtration
sen
##tes
transporter
##inflamm
sb
secreted
preventive
##omeric
stiff
synchron
resolved
largest
silic
bab
kd
##amus
km
histologic
##itting
distributions
carbohydrate
race
glycer
dw
sham
idiopathic
##acerb
##iary
acceptable
myeloid
visit
stromal
##luor
exacerb
##ples
emphasis
cysteine
fluct
embed
ald
respective
contamination
##rown
hams
mom
incorporated
tand
hematopoietic
staphylococcus
trp
virulence
ionic
##nea
blast
vision
ot
replic
preferred
androgen
corrected
##t1
##aving
deter
engineering
dros
online
route
cytometry
##ivariate
serine
nmol
noc
radiological
transformed
##65
depr
neutrophils
##3k
nanos
dissem
optimized
critically
experimentally
neuros
##asone
withdrawal
##angement
endometrial
blocking
scenari
motility
acts
##ders
let
presum
pu
aorta
##ocon
##ilic
signalling
##lox
interpre
dermat
##rd
tandem
passive
powerful
##ordance
reversible
border
##actant
upd
depos
##otes
april
psa
mammary
sept
aver
explan
##lan
##ieved
bulk
hl
quantified
dark
##t3
euk
derivative
inos
osteopor
##viral
hypers
##idae
sympathetic
premature
##ectom
dissociation
africa
solub
readily
organism
oa
canal
pathologic
promotes
focusing
drop
##rox
##ocr
formulation
traff
visible
conformational
lungs
##empor
keratin
##embrane
extend
registry
##uncture
subgroups
copy
##rene
aqu
chor
equation
hepatocytes
prenatal
college
ham
consequently
obl
eukary
decade
topical
ultrason
viable
isoforms
radiographic
comprom
##asty
kinases
##chemical
reinfor
protect
addressed
##ticular
city
vertical
dye
immunization
hepatocellular
##iol
psychosocial
##opsis
deficit
drosophila
youth
innov
excluded
warr
lute
suicide
porcine
rice
fertil
meaning
walking
##off
obvious
sessions
deterior
##phosph
antiviral
echocardiography
##encephal
modes
somat
homolog
##atible
qol
expressions
##gu
ars
square
austral
kore
fatal
gastr
questionnaires
salmonella
##atibility
##actin
##ephal
##ofl
sea
##arp
##ories
##tice
nsclc
minute
permanent
adp
infiltr
##orp
prominent
resemb
unchanged
duod
##ometer
candidates
participate
boys
tree
veter
isolate
wind
##omotor
ke
fibrillation
igm
malignancies
aml
templ
sediment
##anal
produces
1990
preference
monocytes
##ophyl
glomerular
##ulmonary
scattering
proportional
homology
concurrent
doub
##acycl
coronavirus
harb
mitral
offsp
sustain
atrophy
cocaine
biliary
pancreas
prolifer
microscop
shaped
autologous
redox
interstitial
immunofluores
pas
bipolar
incompl
##flow
cattle
mediate
hu
overweight
responsiveness
participated
situations
diminished
stimulate
lobe
quar
tach
secretory
practitioners
ventral
destr
tight
##odon
activate
manual
snp
capture
july
contributing
glands
180
glucocortic
managed
cytoplasm
##ided
##omorph
harm
mobile
lev
##icking
rrna
2017
electroc
box
modalities
dyn
formula
leptin
guidance
adapted
operations
##zing
nin
alteration
acidic
familial
##f1
competitive
##athyroid
##rt
##phthal
offspring
lifest
exception
glauc
potency
newborn
promp
##orec
horiz
t3
personality
approved
radiograph
hos
##54
##ubation
casc
prophylaxis
ki
reag
endomet
alt
arrhythm
item
004
discovered
enl
1a
##rod
beta1
merc
##n1
bonds
applying
apical
perceptions
importantly
patch
trich
aromatic
##itic
epigenetic
width
##ulder
110
coordination
##lem
##vasive
highlights
stronger
tendon
oocytes
ld
##ians
##isciplinary
easy
##ilon
nutrient
lin
occas
confound
wet
paired
syndromes
sig
##roz
mononuclear
malform
overcome
elong
yr
stomach
implanted
##ocin
##rotective
negl
##otyping
pathophysiology
burn
##usively
create
##hr
antitum
##eptides
modulated
neurode
##56
abeta
lineage
optimization
shoulder
normally
##avir
neurodegen
object
frame
effector
propag
adjusting
##orbent
nd
ethnic
##cn
synergistic
epidemiology
##entis
adduc
eligible
##osyst
hospitalized
serial
trait
##lands
excessive
##iar
urea
mirnas
adrenergic
##agic
apparently
buffer
vascul
diffr
bands
microarray
season
##ufact
allo
accounted
quick
##inosa
inside
anaer
innate
qt
vacu
##asic
chamber
##avelength
cows
bes
sib
incident
ging
sac
facilities
neuron
##ials
considerably
evid
lamb
##tate
##3a
manufact
utilizing
weekly
##37
radial
contributed
##inating
substituted
##adequ
predisp
blocks
##lit
continue
inadequ
seizure
##ci
##gia
1999
##loxacin
herpes
stained
##ardia
null
mood
retained
category
amplified
196
gyn
vectors
unrelated
tk
catech
enhances
gtp
differentiate
##opyr
shear
meeting
endothelium
##axel
turnover
examples
##vs
lup
pressures
rarely
exhibits
fear
brach
comprised
hypertrophy
shell
contral
posts
##oad
crc
##enopausal
microtub
reporter
iq
pregnancies
unexp
##hd
antidep
##inase
##oderm
##bil
##ropathy
pin
promoted
histamine
pup
depressed
scr
expanded
nicotine
ventil
ome
elastic
##rile
intraper
cultural
##ectable
##oplasmic
searched
gb
600
pooled
intell
esophag
drainage
examining
stret
tolerated
roots
larvae
accepted
td
empirical
wheat
##oarth
coagulation
##ools
chemok
postoperatively
##ques
ligament
mask
simpl
##hl
division
##tidine
student
##ero
clarify
usefulness
fs
cyclin
kr
##enin
##linical
requirement
beh
retard
sugar
excitation
ef
disappear
opportunities
translational
##uate
fibroblast
loaded
compartment
##electric
phosphorylated
##iration
axial
mab
2a
polypeptide
bay
rhin
ideal
nerves
##opolys
latency
##2o
histopathological
neurom
distant
throughput
perturb
scar
psori
##inflammatory
##theless
upstream
##nis
papill
mapk
nevertheless
math
industry
##ynaptic
enables
analogue
usual
antidepress
contralateral
acuity
##odialysis
##uits
difficulty
bmd
wavelength
scler
bud
lethal
a1
cats
##osures
rhythm
caud
abstr
##ora
bs
purification
amel
##43
sun
aerug
##vis
##mitt
fruit
fourth
##amethasone
##idium
sap
opening
prescribed
transmembrane
##arged
video
investigating
##astatin
asked
chloro
share
explo
medline
attempts
##aemic
##cepts
gsh
##cious
fasc
tac
abolished
iga
aeruginosa
leukocyte
headache
##agnetic
pseudomonas
soy
##osan
##arcoma
cro
##for
severely
helix
rupture
round
ventricle
ecological
##chlor
opportunity
nps
pow
##amma
salivary
oes
##oustic
started
resc
##xy
##ograms
believed
aerobic
##times
atomic
sulph
##iod
inactiv
ia
goals
preclinical
displacement
clone
##sych
algorithms
##roplasty
a2
lifestyle
tap
##ometh
stiffness
emergence
tended
unlike
hypot
surveys
##ober
systematically
urg
sixty
embedded
sick
1998
vaccin
neuropsych
##oradi
ti
##tructure
india
##nat
xyl
night
##ariable
je
citr
##ees
vin
##uven
1alpha
erk
p450
atoms
muscular
ankle
tip
##ptic
claim
pge
microf
industrial
accelerated
linking
superficial
##avail
##economic
fitness
kit
sudden
##fort
##pecific
nonline
hyperplasia
metals
construction
physiology
sds
##lings
underg
bif
phe
referral
lm
prostaglandin
financ
##ocor
chicken
acr
bf
indication
digestion
##omb
c57
answ
bol
locally
anch
clamp
para
##alent
##imb
pca
registered
##arum
##elves
hemisph
lowering
sensing
staging
##ala
functionally
##cape
progenitor
yl
novo
pneumoniae
exclusively
ophthal
vp
domes
dosing
ppm
acyl
##affected
oncology
flexible
peroxidase
mda
##iking
ft
saturation
undergone
catalyzed
pit
exposures
ubiquitin
opposite
pref
ecg
reticulum
adhd
##ocated
p38
##olone
##uz
chemistry
nonlinear
antitumor
branch
september
responded
##ocep
univariate
concepts
paradigm
distinc
l1
october
marine
fertility
bt
insufficient
mrnas
contributions
##c1
impacts
perin
irradiated
##imp
periodontal
margin
t4
oligonucle
histology
triple
processed
unaffected
plasticity
##enger
immunoreactivity
eosinophil
covered
supplemented
expert
reflected
inverse
driving
trunc
##tives
prescription
d1
##imetry
protected
fig
retina
##afts
##key
##ortions
##ellite
perioperative
##oxygenase
cohorts
sense
domestic
subm
cure
relaps
static
naive
fos
foods
modality
triggered
wat
anatomy
forward
placental
rn
analogues
constants
rnas
numerical
tendency
disturbances
statin
building
##keletal
electrophys
##ubicin
##ests
instruments
##oreceptor
hormonal
immunofluorescence
peric
too
coating
autophagy
discusses
tubular
cvd
statistics
predictions
mechanistic
##ologist
terminus
comprising
neonates
currents
surgeon
##ochrom
fell
ckd
releasing
##aments
ont
asian
vertebral
ala
tcr
ureth
luc
breathing
follicular
140
alkyl
rub
vo
##34
aspirin
diffraction
##grade
proteomic
cochrane
##erge
rect
pay
##aint
##aceae
session
hot
australia
glaucoma
encountered
##eres
anticancer
lymphoid
1997
atmosph
balloon
lupus
scheme
pubmed
microbi
circular
pharmaceutical
injured
rated
##cp
english
partly
##ostatic
nmda
cin
canine
cement
cardiop
surpr
orally
micror
acetylcholine
thems
electric
clinics
nond
themselves
conduction
mixtures
##otal
##opl
microorgan
defense
sucrose
transferred
mirna
anthrop
dexamethasone
socioeconomic
architecture
##keys
##ethylene
gait
biomass
restored
mex
front
proc
osteoarth
##rim
h1
##enta
##izumab
hall
ide
helpful
shifts
##actor
sar
avi
##odal
##accharides
deal
mediators
1995
satisfactory
equip
##esium
##rex
selen
offered
provin
thrombin
##aminergic
naturally
dramatically
partner
cess
nl
fdg
inactive
##openia
scoring
##antib
intermitt
attached
##osen
##omerase
cerebellar
##ping
preservation
##eleton
arabid
conservative
precursors
declined
##ept
coa
cef
alkal
wnt
tric
circumfer
anion
insurance
##hyp
pore
lag
minimally
bund
nodules
cus
arabidopsis
unexpected
defective
lifetime
##ionine
##oprop
tibial
equally
fluctu
amph
cessation
colitis
envel
seeking
medull
##thromb
optimum
##aved
din
profiling
dispar
persistence
osteoporosis
##mal
##f2
d2
achieving
##ogenes
##gestion
raw
zero
informed
alanine
juven
##apt
climate
cytosolic
exclusion
nonp
becomes
evol
polyc
analyzing
why
configuration
favour
##omatous
incomplete
pharmacokinetics
noninvasive
perox
##rought
neurotrans
neoplastic
mf
olfactory
inpatient
usa
##35
##irc
silica
birds
restoration
##ipine
##ighting
otherwise
distric
multicenter
schools
reflux
intim
##otoxicity
ejection
aspect
generating
look
chosen
biofilm
purposes
##r1
silver
transfection
ccr
1996
130
enanti
lysine
##jun
preserved
revision
meal
fsh
encodes
append
neurob
invent
cmv
##tomy
##imus
##hn
##hion
##estim
c2
##ional
mouth
private
bacillus
anaerobic
r2
competition
establishment
maps
omega
##tral
kidneys
ultimately
subp
##obut
opin
unlab
eggs
##oides
property
testicular
completion
##herent
tens
enrichment
policies
stabilization
hier
catechol
g1
##del
pth
diarrhea
extensively
inadequate
swelling
##ivation
##tism
gradually
##anium
farm
##ophen
##ague
##olarization
contaminated
##inergic
##va
connected
aberrant
weights
##tured
communic
sirna
hsv
##mm
sarcoma
alignment
bmp
fashion
laborator
palli
stored
indeed
resin
##ogeneic
septic
swe
transforming
relief
##iton
sequenced
chel
usage
athlet
##rozen
ionization
profound
rg
knockdown
recordings
nation
promotion
anatomic
##ocyan
immunop
erythrocytes
hif
colonic
enough
circuit
c57bl
plasmin
neuropath
breeding
##points
sg
hierarch
endemic
provision
bronchial
conservation
##tra
steroids
recons
1h
tet
##essive
lipopolys
##idity
##ylamide
mammals
transmitted
##esize
##patients
integrin
electrodes
van
ganglion
conscious
nacl
dent
affer
traj
upregulated
kind
besides
unst
ebv
edge
nucleotides
switch
##odium
upregulation
episode
##onom
##uretic
nano
thyro
insufficiency
molar
sometimes
##ucted
jus
homogeneous
splicing
hind
conjugated
dysplasia
spontaneously
interacting
glial
frozen
rd
cdc
counterpar
##oblastic
ethical
guan
##oblasts
##recip
hearts
assumed
stratified
trypt
gives
gross
hypothalamic
focuses
surprising
##iable
renin
codon
expon
quite
cab
deox
viscer
designated
influencing
##urgical
tam
hous
coil
encaps
##etized
ic50
iu
##iley
select
pancreatitis
##otherapeutic
circadian
thresholds
recall
efflux
##g2
fp
mathematic
laboratories
##lot
autosomal
behavioural
gad
##elve
##otub
va
trace
conditioned
anomalies
aspiration
twelve
14c
dilution
candida
palliative
remarkable
dense
nitrate
##ulos
caregivers
crypt
##67
abscess
ptsd
nb
##ming
##aly
##iciencies
##arct
calculation
coinc
helic
coping
##oscopic
nig
##akes
applicable
clean
##ostatin
decay
tyr
catenin
mandibular
vasodil
market
visc
meet
ai
##elles
administr
##gt
lasting
examines
##ito
##ulsion
##oemb
neuropathy
catar
crude
labelled
##rontal
##ographical
##hed
anis
articular
intense
hyperg
homozygous
##io2
incision
grafting
##ards
parasites
tsh
violence
##odg
august
aspartate
photon
bonding
##abine
matching
conven
inh
attenuation
ureter
df
waves
moderately
ultrasonography
fungi
tracking
words
ranges
gyr
horizontal
electroly
ovary
##gene
thr
vap
hh
penic
##ophore
wist
ru
peaks
glu
latent
elective
cac
intermittent
hyster
ecm
immature
##acterial
##oxif
lambda
cues
polymers
capability
station
##otoxic
electrochemical
##terase
fri
aneurysms
swed
specimen
arising
chd
##acil
mscs
cerevis
mycobacterium
pigment
##rospinal
gst
wistar
cysts
##utable
charged
tone
shed
##angements
her2
collabor
took
antif
mitogen
desc
mumol
geometry
c1
##iatal
neurologic
rough
financial
modest
cerevisiae
routin
multivariable
west
fistula
##63
synov
##ofib
employing
unable
recipient
deprivation
details
##yrin
##epith
mdr
illustrate
returned
microscope
##adren
reaching
sand
additive
##atonin
cooper
mini
stranded
descriptive
aph
mediating
monkeys
che
separately
accumulated
##tia
hemodialysis
proce
multim
16s
acoustic
picture
river
ligation
rule
##day
##anger
hydrog
##unk
manipulation
silencing
principle
lesser
verbal
genetics
cerebrospinal
erg
conjunction
revascular
rho
entit
epiderm
##requ
##ecan
enabled
axons
pi3k
##factor
giving
ambulatory
committe
##oblastoma
definitive
user
trna
105
notably
epsilon
bioavail
alle
2019
anticip
##retro
uncom
reserv
##esare
##amines
threatening
##bilical
##cale
discrete
government
autoantib
flexion
cris
##clerotic
magnesium
connectivity
neoplasms
##se
afford
migraine
##accha
##pin
segreg
leukocytes
glycine
nucleic
antiretro
##aturated
mas
recognize
summarize
##95
apply
heme
discrep
formulations
##enth
calor
##but
amelior
hisp
institutional
surfactant
code
quantitatively
mw
intention
##orted
adding
##olid
supernat
underl
##qol
febr
perc
incid
los
adopted
##graphy
equations
1994
knockout
sigma
##olym
attractive
160
marginal
postmenopausal
##igation
cigarette
deoxy
asymmetric
oriented
##romycin
##ricult
modulating
haemat
glioma
##ogenicity
causal
osteoarthritis
hypoxic
arthroplasty
suspension
inventory
etc
##esarean
microgl
cyp2
erythrocyte
diaph
comorbidities
validate
##ergies
allogeneic
seasonal
subsets
##enteric
##ensitivity
##cy
##osarcoma
intermedi
kap
pleural
controversial
tro
agricult
institutions
conductance
cranial
fecal
february
inserted
postpar
devi
##icul
111
##aryng
sent
fn
cloning
006
wiley
lectin
kerat
foreign
h2o2
melatonin
resusc
blotting
##itors
disulf
##agement
doctors
peer
contacts
perinatal
arc
ole
forced
##pro
deterioration
##mut
##asts
echo
phage
entr
uncertainty
amn
lipopolysaccharide
extreme
##iliary
scav
evaluations
joh
regulators
serop
trigger
copies
##inescence
abc
evolved
gnrh
cool
specialized
##ino
flank
interfac
##ola
analgesia
universal
attending
attributable
destruction
ded
chemicals
cascade
standing
##orubicin
crystals
abl
canada
pci
myosin
forest
striking
owing
criterion
micron
postpartum
nitro
##vem
cros
astrocytes
nal
arach
prophylactic
flat
dut
myocardium
equipment
transplanted
incontin
massive
##entan
warm
d3
methanol
east
##otropin
herb
autonomic
anesthetic
mtor
til
crani
historical
meat
##enstr
held
ineff
receiver
##antom
##plastic
sym
##rag
oxidized
##oea
##uck
observe
imped
orbital
joints
dysp
pari
99m
cadher
believe
gol
trem
tris
microorganisms
representation
##opus
##rolif
blockers
mcf
##atr
450
##nd
friend
umbilical
cardiomyopathy
strict
##ffe
avoidance
sna
unstable
heterozygous
fel
striat
sial
antiretroviral
2018
polarization
##psych
##ped
pollution
continuously
antibacterial
alcoholic
template
nav
##99
ratings
deletions
constructs
describing
capsule
moment
##puts
mitotic
belonging
graphene
establishing
paed
immunoreactive
##rp
streptococcus
cochle
##tructural
##osel
eukaryotic
##48
poli
vestib
hodg
interpreted
fibrinogen
acup
responders
facult
##ares
prescrib
colonization
mutated
immunotherapy
epitope
name
##elect
##uding
advanc
harv
normalized
cauc
##k2
dial
##ura
peroxidation
##met
conditioning
aggregates
juvenile
##ayers
replaced
cholec
##romyces
gained
noradren
arise
ih
calibration
hosts
sole
ibd
similarities
lumen
cfu
##imeric
ances
##organic
becoming
metalloprotein
repeats
giant
balb
cannab
testis
mesh
covari
carry
##environ
hodgkin
##38
irre
##olate
subpop
prone
parti
overlap
##lipid
contractile
inver
peroxide
genital
adjunc
##urnal
spot
phospholipid
mathematical
800
caucas
allergy
photosyn
psoriasis
calculate
apo
deline
##xa
novem
monocyte
radiol
inversely
glycogen
lib
proportions
gfp
macular
america
dispersion
tbi
crop
extremity
consent
clustering
losses
##ida
##ocompatibility
visceral
verified
fluids
cholinergic
visualization
##ectomized
acth
paral
quantity
##omegal
##p2
reproducibility
radicals
relatives
gt
raman
november
dg
##ulant
csa
1980
exert
caries
phantom
hbs
carcinogenesis
poorer
fetuses
mism
corp
developments
##ius
victim
106
penetration
wil
neurodegenerative
prove
pseudo
plans
epitopes
popular
compatible
counseling
##bean
repetitive
vc
##static
##iefs
fragmentation
dsm
007
determinant
immunosuppressive
##ellum
asper
modify
superv
methodological
tas
cellulose
registration
caffe
grav
virtual
##psychotic
##itability
##accharomyces
##olum
ecosyst
##ishman
##benz
pestic
dcs
##onv
leu
inherited
cognition
vl
##42
disturbance
inoculated
deplet
brca
##ografts
expend
vill
tai
##entists
##ecs
multidisciplinary
primers
constitute
microenviron
germany
##ah
polyph
##erver
consistency
resident
ectopic
athletes
abilities
smoke
correctly
transitions
motifs
ribosomal
uncommon
brown
##bumin
##uric
##apine
tol
##ostomy
condens
##unting
apprec
lic
125i
embase
beliefs
##eria
immunosorbent
scaffold
##urable
missing
##rogens
ju
histologically
##loy
phenomena
piv
##01
immobilized
aryl
sharp
conceptual
##nk
converted
accompl
densities
##etamine
scin
elucidated
##aking
discl
incons
promise
granules
prevents
slices
aware
cadherin
ccl
##otrophic
powder
alumin
facilitated
expendit
thorough
pad
##55
##opia
neighb
##idazole
infl
trac
dramatic
uro
radiographs
stra
participating
dopaminergic
adrenocep
myeloma
manage
##erated
atherosclerotic
hered
jejun
chromatographic
biologic
bon
gynec
ambient
courses
reflects
asd
gem
incontinence
bw
tachyc
reproduction
##ronectin
microp
ethylene
directions
##onyl
drive
century
abnormality
reflecting
engineered
slope
123
##amer
##opter
mutagenesis
##itig
##ozoa
##entioned
fibres
routinely
gingival
geographic
cyclase
fair
##epithelial
cyclo
job
mrsa
##ibilities
##atation
prolactin
antipsychotic
plex
trypsin
folding
##ophan
##eled
##osidase
schedule
##irs
resol
immunob
endoplasmic
##imetric
##opress
ingestion
contrary
seventy
antigenic
inorganic
promoters
insect
responding
moving
##arboxyl
lithium
keep
transverse
maxillary
prosthesis
vibr
commercially
running
filled
##roid
arb
triph
##zation
1993
microl
##ensitive
compan
remote
iodine
##uvate
attend
rif
sag
mosqu
##enzyme
008
drawn
cataract
preferentially
##rowth
estimating
##ylic
annot
masses
101
glycol
allograft
##ulsive
objects
rationale
adsorb
meg
limitation
transferase
intron
anten
leishman
ganglia
exploration
ipsilateral
assayed
cephal
ulcers
analgesic
spi
phosphorus
remarkably
biph
moiety
fis
termed
1992
##affin
corn
facility
trimester
electrocardi
##icillin
##epinephrine
endometri
dair
parathyroid
envelope
macro
fluoride
inoculation
slower
indian
apart
experts
minimize
##onomy
##inance
hydrocarb
notch
leakage
hygi
##ilar
australian
eastern
##itated
island
gv
san
##x2
104
apparatus
##atosis
endovascular
norepinephrine
yell
splen
hba1
##ococci
contractions
unlabelled
ik
##ulates
salv
attempted
guideline
mk
zebr
clinicopath
lymphatic
hypothalamus
poison
centres
aeros
ie
##mia
machine
##oreg
fev
c4
bh
anaesthesia
asperg
tick
takes
cip
introduce
papillary
lactam
fus
##ifug
tunnel
sampled
disl
coherence
card
infarct
irrevers
intraperitoneal
prefrontal
terr
evidenced
sensitization
suffered
roc
##ygd
pdgf
modif
##aldehyde
angina
cough
interrup
bacterium
considerations
glycerol
optimize
bioavailability
committee
titers
typh
cot
103
explanation
journal
leaders
cardiopulmonary
partition
perh
striatum
alph
ago
converting
classic
spind
g2
obtaining
overlapping
intraocular
ea
autism
trap
##lyl
dairy
##uled
reward
##75
##tified
agar
proinflammatory
dioxide
vom
108
prostatic
endoscopy
province
##98
perspectives
aller
##x1
bacteri
household
parietal
p1
##asome
wounds
cosm
##brain
defining
autops
get
##rug
##sk
probable
mosquito
amygd
paediatric
cd34
pulses
veins
senes
flight
##roliferative
batter
adenovirus
automatic
predicts
##mt
mediates
h3
reversal
legal
volunt
##utation
trab
irresp
distances
saliva
liposomes
revascularization
blocker
register
##yclic
chit
##acyl
augmented
src
lid
yellow
acs
rings
##ova
##allow
reproducible
perhaps
##b2
integral
anastomosis
preferences
mimic
arms
ko
wear
hyperp
corticosteroids
doxorubicin
abortion
##m1
named
##uing
helical
hydrochlor
##mv
fluctuations
planned
glucocorticoid
weakness
daw
effusion
duodenal
##hep
submitted
vulnerable
thromboemb
switching
##after
##aver
allevi
homogen
respiration
plasminogen
explicit
##oplastic
coex
influx
personnel
##aid
ascorb
fertilization
inconsist
analogs
wean
##ubin
##uclear
incorporating
hypotheses
##virus
highlighted
##mium
drink
##eces
##inder
essentially
connection
damaged
##36
septal
##iffer
##aris
biologically
microvascular
##bow
##unctiv
scaffolds
periodic
permit
carp
entity
##44
dismut
hereditary
biomechan
demonstration
rhod
physiologic
nephropathy
nick
##amily
micromol
prp
fate
surgically
pulsed
##acrylamide
admissions
102
##lementing
als
##irable
propr
kinds
clonal
rcts
hba1c
perfused
fruct
served
collectively
dropl
assembled
internet
ili
axonal
organizations
psychiat
flexibility
acceptance
##thood
haplotype
accounting
serological
m1
spectroscopic
triglyceride
slowly
shunt
##pyr
quanti
fermentation
affective
adulthood
##psia
conversely
131
ammonium
##eted
##ented
pod
##odec
electrophysiological
elongation
immunoprecip
trunk
##regular
hydroxylase
f1
irrespective
excitatory
foundation
soils
outl
##h2
structurally
calif
engagement
##nut
1991
window
nitros
seeds
##asm
chemot
follicles
tumorigen
intens
intended
french
dpp
menstr
anc
##itron
distinguished
methionine
ll
##ermia
lineages
undet
circumst
##oconstr
osteoc
irregular
thrombocyt
##lastoma
##wan
bolus
##omod
views
##ya
sporadic
bb
##d1
##abolic
##ogl
denat
iop
activates
hcg
tachycardia
sulfur
##olding
epidural
presumably
lock
curric
plaques
antihyp
tin
leucine
naf
ses
tryptophan
confocal
polymerization
filament
placenta
nadph
mind
advance
transporters
regarded
porous
saccharomyces
constraints
##omial
##ondyl
falc
##ectic
positivity
##inates
hyal
##59
##litaxel
varies
resuscitation
reservo
inapp
vasopress
##66
##adv
collaboration
rose
##ropri
##icans
ethnicity
wastewater
filling
arrays
eliminated
lengths
perfor
##mitter
##arial
screw
surprisingly
##otroph
fused
islet
cycling
chr
monoph
vomiting
paclitaxel
##atinum
##onym
custom
diaz
##onazole
scc
##inting
detach
pals
winter
ka
##olet
pock
addressing
mitig
averaged
multiplex
explor
icd
##a±
faculty
dest
##tium
confined
apoe
##aker
polymorphic
##mission
energies
##lamyd
finite
inappropri
gray
big
soc
##irubin
causative
papers
fibronectin
##usp
suture
##urane
precipitation
accessible
stimulates
bases
pulp
pollen
metric
acl
##exin
hamster
dismutase
inhalation
cyclospor
stabilized
demands
fetus
mapped
limbs
interacts
##amph
kl
eighty
cpg
continues
split
californ
adhesive
catalyst
##dd
sized
##ielding
chiral
tong
p21
##albumin
monotherapy
links
exons
##eption
triglycerides
##32
scenarios
##ido
intubation
curative
##orh
anthr
chip
##45
pretreated
cytogenetic
render
depleted
angles
avian
mesenteric
##ortive
fulf
propagation
prednis
played
##glycer
prompt
crohn
dermal
chlamyd
bat
arachid
foci
lands
lb
ultravi
##ivity
district
##ift
eventually
complaints
ultraviolet
mercury
analyse
hi
coordinated
##obac
hazards
killing
##amb
##fish
circumference
##o3
rhiz
titr
wm
dv
sah
desired
ae
golgi
publications
##arium
endpoint
##inos
starch
nonspecific
managing
oxal
lowered
disulfide
ophthalm
rely
bup
titanium
dead
##borns
recessive
phospholipase
provider
exhibiting
ammonia
relating
york
naph
spent
##47
dysreg
immunized
idea
constitutive
##ozo
swim
spir
##lements
detector
##endocrine
binary
programmes
horses
clinician
##diagn
brady
aor
##onduc
organized
modifying
genotyping
##itten
instruction
synovial
descending
zones
eleven
extrap
##88
##amino
##yroidism
meaningful
transc
##inge
cadmium
nicotin
##39
microv
kary
challenged
glucagon
stain
kh
splenic
accordingly
cea
subcellular
tpa
innovative
enabling
warranted
lives
ww
mediator
newborns
primer
apolip
consumed
compartments
comorbidity
subd
proteolytic
plasmids
cerebellum
positron
hypersensitivity
prl
vast
italy
competence
judg
multil
microsat
lucifer
quadr
catalys
##ois
nemat
microenvironment
sprague
microd
pmol
##ophyll
asia
dawley
fractional
catalase
connective
differing
reasonable
trabec
repress
##hepatic
isotope
##ettes
waters
malformations
##afish
##ou
##rogenic
sexually
manifestation
nause
cit
##agglutin
twin
facilitates
downregulation
zebrafish
pfs
boundary
##stem
intermediates
centered
##ocking
multidrug
107
falls
spite
consultation
cutoff
##oor
vestibular
phil
apolipoprotein
albicans
gaps
##ife
designs
##odontic
passage
b1
##idone
preserv
seal
sensors
individually
americans
trypan
differs
mot
datasets
hernia
stream
nausea
##uan
termination
efficac
##odegrad
ment
modelling
##azone
photoc
cleft
thereafter
plates
tea
retrograde
##amil
##advant
retrieval
ff
##acetic
laryngeal
iqr
platinum
disadvant
medias
hyperglyc
antifung
taiwan
expectations
counterparts
thymus
xanth
follicle
##o4
handling
glomerul
thymidine
scored
##ply
cone
today
pollut
messenger
##obenz
th1
cholecyst
##68
solubility
##edema
voluntary
aldosterone
##ipt
imbal
luminal
antidepressant
intravenously
degenerative
butyl
synaps
##rectomy
lean
caffeine
##ele
gf
##ylase
natri
hela
##ble
spike
rigid
hemorrhagic
inherent
stratification
hypoglyc
straight
##amel
impairments
heating
flavon
eh
##acycline
shortening
progressively
##asal
teleph
dib
allergen
##obs
bdnf
cationic
productivity
falcip
##oate
retardation
build
##abd
vt
neutralizing
endotoxin
carefully
fourier
colonies
suggestive
##anz
hispanic
##antic
spring
fox
categorized
nanom
motivation
neuromuscular
hn
vocal
dermatitis
microbiota
tracheal
chitosan
##olateral
king
transcriptase
##obarb
react
coast
junctions
earth
##olipid
nom
biotin
immunoblot
office
polyacrylamide
##entary
chemokine
erythemat
##ocycl
emissions
sharing
arsenic
##icidal
##itabine
mucin
ber
immunocyt
vig
pah
##iding
continuing
summarizes
autoantibodies
conflict
crosso
stone
retinopathy
seemed
propensity
dust
augmentation
##growth
falciparum
mpa
stents
fh
era
surrog
##ifferenti
walls
cytology
lew
ultrastructural
chemically
computerized
myelin
##ardial
bridge
oocyte
glutamine
outbreaks
oxygenation
employment
##omyel
##omyc
109
enhancer
##ucl
tradition
oz
cerebro
phospho
##osides
bioactive
##illi
divergence
circumstances
familiar
pec
spermatozoa
gels
nodal
opinion
departments
dataset
bax
investigators
##ophosphamide
gyrus
##gic
nic
ends
infertility
branches
accounts
themes
fv
bull
acupuncture
feel
resorption
##oler
bcr
pacing
##opr
##inform
sedation
rain
##ythmic
serves
contempor
##atics
empty
axon
eros
##lobulin
##asi
fmri
accid
slud
mating
precon
unlik
turb
flag
fluoro
projection
stationary
segmental
##inical
typing
##onuclease
tropical
scinti
ri
burst
2020
calves
reciproc
urgent
inhaled
unlikely
##ipr
faecal
phi
mcp
folate
supportive
bath
therapeutics
blinded
percept
killer
epileptic
choline
##alin
confirming
sor
009
vesicle
conjugate
summer
##itudes
apc
ice
minority
actively
trafficking
glucuron
constituents
palsy
meningitis
remove
neuroendocrine
revised
##a2
spherical
lymphomas
##ritin
converg
applicability
thous
sput
##ximab
stresses
##thy
emg
tof
matric
iran
##sc
heterozyg
##mcs
identifies
board
antihypert
##otyped
apnea
cm2
inactivated
##pc
isoth
publication
##orbol
##33
immunost
renew
dodec
excited
crystalline
elast
##idic
hierarchical
irreversible
copolym
angioplasty
survived
creating
began
lf
radius
##epam
preoperatively
interfering
symmetry
##berg
cub
##entric
anesthetized
symb
executive
dissolved
shifted
##erate
##fen
trees
ew
pge2
porph
larval
##pe
plasmodium
##arynx
macrom
##eries
##enem
grass
nanotub
seconds
##77
inositol
##monic
##ocaine
urolog
foss
canadian
grades
acin
resected
##uent
written
##amidal
warf
ami
spindle
fibre
mec
##urgery
esters
gelatin
pyruvate
arrhythmias
cyclophosphamide
electrophore
rip
vanc
diagnose
##luent
built
t2dm
carbox
demographics
2b
##arse
soybean
aberrations
mobilization
saturated
microtubule
quantities
whil
1988
planar
firing
adenoma
corpus
adenomas
##ineal
succin
##version
inappropriate
dichlor
helper
##ontrol
synthet
th2
rescue
citrate
impuls
osmotic
rbc
peroxis
dynam
aur
neuropsychological
korean
whilst
hemisphere
##itance
##icated
orders
lived
unp
dan
3a
1989
ldh
telephone
crossover
haemorrh
covering
phenolic
##formin
##feeding
pw
##eties
##ux
multipl
##ompass
connections
inputs
tongue
kept
sufficiently
puber
amygdala
monolayer
diaphrag
relate
115
embolization
expiratory
encompass
rules
##izer
nutrients
bayes
antifungal
strongest
aux
asthmatic
trif
mds
##aa
preceding
##iosis
tot
##istrib
autopsy
plur
electrostatic
brains
jak
fifth
##aminase
prosthetic
##tituted
epic
truncated
substitutions
sphing
##rost
##atectomy
retr
duplex
##cein
lysosomal
venom
cyl
morbid
phon
enamel
indicative
bv
geometric
rum
concentrated
italian
parac
mentioned
##aching
##asp
##rition
e1
habits
sludge
ninety
vaccinated
prescribing
##ously
attacks
clock
apt
deng
##31
fum
##onectin
specialist
embolism
##opharyngeal
##ochemically
##ka
##coplas
participant
luciferase
1b
##tigm
rodent
##ulator
chance
characterised
behind
##ographically
antisense
##obacteria
##tification
adequately
restr
unpr
initiate
##oglycan
hands
##atinib
thermodynamic
##nes
aeti
viscosity
##econd
reinforc
maize
zeal
##vac
skull
sports
i²
california
oxyt
ngf
percentages
atopic
suffer
hypotension
sut
dengue
quickly
epidemiologic
veterans
##mann
##alanine
gradients
persisted
##otopic
cxcr
endocard
fulfill
##46
##ofol
##cm
jnk
##ohex
##artan
esophagus
icp
crf
##opyran
zealand
smad
##osites
metformin
thiol
priming
latin
##ience
mixing
calcification
##urin
volatile
allocated
grain
diagnostics
scope
cup
##uloskeletal
regurg
france
##rexate
page
moun
mun
glycosylation
##uterine
extending
bones
microsph
retrieved
ecl
chemotherapeutic
##yel
##urea
solar
##onit
fabricated
travel
ordered
phospholipids
cations
gag
centrifug
chimeric
amine
medicines
vasopressin
neoplasia
sciences
##ona
uterus
rearrangement
vo2
##otent
temporary
swine
hmg
penicillin
kil
nail
##aran
periodon
behaviours
polycl
mtdna
hygiene
##ittal
##nutrition
cuff
dilatation
kcal
chap
antihypertensive
painful
semic
reagents
stepwise
geographical
killed
john
dissemination
##otom
palm
away
musculoskeletal
morning
islets
##58
players
##keleton
tumorigenesis
##lv
discharged
##quine
unres
colour
osa
stimulatory
##estr
##incter
immigr
##n2
afferent
##iate
oligonucleotide
##hex
pivotal
sector
striatal
facilitating
exploratory
bilirubin
troph
sbp
##esophageal
humoral
exha
##osum
tear
##ommod
match
femur
##infected
##49
assumption
##itization
biodegrad
virtually
sensitized
##yx
brainstem
monthly
topic
encode
crt
polyethylene
##ita
cochlear
##ilis
menstrual
##etine
ord
ctl
sacr
medicare
aerosol
##umatic
kaplan
##2b
##oxicity
schist
endpoints
pathophysiological
##bred
##uge
infused
percenti
cytosol
##afil
semen
128
interfere
spanish
nih
union
spac
discriminate
acceptor
immunocomp
propofol
intramuscular
natriuretic
intellig
silicon
##otrexate
pell
asymmetry
lipase
bsa
##ersion
granule
noradrenaline
claims
##ushing
waist
bim
consuming
kv
debate
accommod
##orin
learned
lysis
lactic
terminals
reacted
heterologous
matrices
agricultural
pyrid
burs
oligos
bus
initiating
elicit
rearrangements
lavage
displays
lign
oscillations
stat3
immunomod
vertebrate
##illa
varic
projections
psychosis
methotrexate
actually
underestim
##vastatin
definite
suppl
cow
beds
hope
##thrombin
timely
##inositol
noct
hrqol
batch
##extr
warfarin
proof
curv
altering
gather
fifteen
116
hop
curc
##odic
cryop
livers
theories
fibrous
unfav
pathologies
hepatocyte
ferritin
##nals
overexpressed
bn
intrap
epine
hydrophilic
senescence
decomposition
enlarg
c5
physi
wood
##oric
reconstructed
bench
selenium
conjunctiv
filaments
##oxifen
collaborative
duplication
118
gg
1st
microw
contemporary
impedance
journals
crisis
occasion
neutrop
cerebrovascular
eliminate
alp
priority
chickens
ultra
births
angiogenic
diagnosing
assistance
##romagnetic
adiponectin
graded
differentiating
safely
ether
forear
repression
experiencing
##oti
doctor
accordance
tat
##ney
disabilities
240
abd
ling
traffic
##51
synapses
modulates
originally
sexes
restore
##onical
##x10
transpl
surveyed
indometh
##fc
##illar
confirmation
isomer
aq
verify
positioning
##role
serotype
thrombus
reflection
##opropyl
balanced
nif
##orac
129
##acaine
tracer
grading
erad
fire
##urium
##oreal
allelic
sided
chronically
##4a
electrophoretic
spik
tubulin
clot
proline
##rep
transcribed
##omere
indomethacin
ix
iliac
tolerability
vasoconstr
##astric
vulnerability
disrupted
meier
spain
##licate
exploring
military
digestive
pharmacy
syr
aminotransferase
##odend
multis
##ford
splice
atmospheric
codes
arrangement
rsv
deformity
pka
perceptual
borne
##ropo
beta2
schw
concerned
##h1
spreading
##rolimus
attain
expenditure
antip
scaling
gated
##transplant
bring
##omed
county
##titude
126
bank
##c2
breastfeeding
perp
incremental
implementing
##omavirus
confirms
rm
##inery
b2
keratinocytes
derive
cesarean
revealing
dihydroxy
diver
absorbed
##eland
ductal
extin
imag
bundle
loads
##etrical
deposits
signature
##transl
chaper
thrombocytopenia
aro
immunosuppression
##nary
dissolution
chart
confounding
discontinuation
hypog
##emporal
segmentation
granulocyte
scenario
proteasome
gps
##erin
spondyl
tubes
purs
conducting
interventional
endothelin
ee
polyclonal
##zymes
possibilities
catheters
proteinuria
presentations
weakly
reliably
interviewed
floor
caucasian
perforation
bioinform
soon
intensities
proteases
aki
wider
contraceptive
nanoparticle
sequel
##anolol
lymphocytic
##lipidemia
capabilities
##omethyl
piper
raise
1987
entered
locomotor
##urons
qp
emphasize
endoc
microsatellite
dendr
n2
dq
electrolyte
fda
##ipped
salvage
salts
##arinic
heavi
breakdown
##timal
mosa
##atric
subf
fb
exceeded
gent
briefly
pocket
lactation
conductivity
reagent
nn
covalent
simplex
creation
train
intrauterine
singlet
vw
nocic
tio2
##oney
ok
scd
synthetase
benzod
cooling
somatostatin
die
biomechanical
calf
amongst
##idol
curriculum
##ican
vancomycin
##osamine
paraffin
##m2
immunoassay
##ophysical
dro
come
corticosteroid
c6
caudal
efficacious
sphincter
agreed
fen
seropos
breaks
vip
monkey
135
cytoskeleton
##imaging
hydrochloride
interd
ascertain
relig
aquatic
medicinal
##utely
h2o
##ussian
neighbor
##pi
neo
wrist
##acial
asa
ics
112
alpha1
##78
##ethanol
##oflurane
##obacillus
##ulas
exec
lattice
uncover
origins
strep
tailored
occip
subtil
radioactivity
notion
eigh
monomer
overload
##ouracil
##xr
hdac
solvents
indirectly
que
radioimmun
deleter
##onine
endometriosis
##expl
gains
dot
dominated
1985
intercellular
strengths
nude
##000
duc
creatine
##itish
deleterious
len
attitude
somewh
erythematosus
dehydr
ischaemic
intracere
##bone
particulate
fructose
excluding
ivf
table
anter
##inin
##emp
erythropo
exponential
erk1
margins
conjugates
##omics
battery
compromised
transcriptome
neuroblastoma
microglia
echocardiographic
agglutin
##itating
inability
grouped
cgmp
heterod
habitat
##je
originating
##oup
methoxy
morphologic
argue
rein
routes
protr
##glycerol
stock
diameters
parenteral
sagittal
physic
##juvant
##inyl
degraded
hold
generic
patency
##fo
dried
exerted
##opathology
electros
calmod
benzene
brought
##onium
vitre
cck
depolarization
adoption
biosens
dysph
mad
couples
propranolol
137
flanking
##41
##inesterase
##rotomy
accomplished
eradication
gonadotropin
lg
cooperative
chemo
##head
successive
indig
polysaccharide
##istribution
robotic
haplotypes
disseminated
##inted
histidine
oncogene
##bir
neuroprotective
aspergillus
##ozyme
scaveng
clients
mg2
postsynaptic
racial
immobilization
forearm
##otechn
##kinin
##cd
sav
rodents
##elia
normot
advice
distor
bromide
##iers
calmodulin
epinephrine
170
gw
accessory
borderline
unn
subtilis
##place
solely
definitions
cast
icam
glycoproteins
hct
preec
ultrasonic
oncogenic
operational
trail
##ishing
##ua
programmed
glycemic
korea
ubiquit
proximity
retinoic
toxins
tamoxifen
pma
mtx
illustrated
deterg
microsomal
##ods
concordance
sputum
faces
addiction
##oy
ethics
ulcerative
cobal
##ophilus
differently
taste
rays
stretch
dentin
nap
##omyelitis
specified
poisoning
biod
deploy
documentation
yielding
##onn
##ipping
##oni
##oxane
##ena
adolescence
phorbol
gradual
polypeptides
arachidonic
inversion
freed
plexus
##ecific
benzodiaz
ceramic
nitrite
dextr
diphenyl
##edge
detrim
atax
quadrup
##73
periodontitis
comment
rcc
##o1
##iesis
boy
deviations
broader
##ificant
##ethylation
anticoagulation
ineffective
clo
accident
paf
interpl
ascending
somewhat
http
fungus
allocation
stones
lipoproteins
pyrim
geriatric
##eptidase
fractionation
##d2
hypo
hes
##ietin
##ersonal
##ortical
##han
expanding
surrogate
regurgitation
lymphaden
##tip
hyperglycemia
exerts
fitting
##tl
bayesian
sons
plateau
selectin
pcs
reform
plot
hypertherm
subclinical
deformation
postin
adsorbed
##umb
british
pai
##itonin
intrath
orf
incomp
neoad
ppar
downregulated
attributes
sheet
axillary
immunoprecipitation
mosaic
benzyl
buc
funding
18f
##regn
acceleration
feb
consolid
bid
tv
radiolab
neoadjuvant
module
fev1
avoiding
##amen
totally
elbow
nickel
1986
airways
sheath
##agr
taxa
suspic
cass
ascites
##atite
##ignificant
gallbl
##odem
refractive
adrenoceptor
nich
interactive
quench
##ivacaine
homes
regime
plurip
adenine
semantic
pars
microsomes
##oxidase
spots
##therap
##g1
neurof
antioxidants
designing
washing
##ecess
escape
bios
docking
145
progenitors
bill
adducts
tons
functionality
hyperactivity
##tir
desorption
judged
unexpl
learn
drivers
sacc
selecting
##mo
trache
reserve
##ocyst
dodecyl
##gamma
integrating
organizational
intrad
pon
topics
##tructures
acetic
pharmacologic
delays
hbsag
bcg
unid
xenopus
bruc
suicidal
##ustion
metalloproteinase
##69
compensation
##aterials
titer
supplements
monte
mabs
insensitive
stroma
willing
sy
radioactive
##opathies
##adm
114
machinery
deduced
##arter
projects
amide
##graduate
##brids
misc
simply
carboxy
emt
##oflav
tablets
viewed
##l1
anova
##ocysteine
mag
hcl
comfort
##nam
rotational
decompression
imprin
phosphatidylinositol
carbonyl
##rist
invari
##eced
vapor
intellect
compact
distinctive
catheterization
##electro
myocytes
inconsistent
m3
##yrate
illnesses
##rotection
aga
inequ
##62
##iently
##ussis
dilated
##agia
suspicion
functionalized
lake
##iab
cll
hole
virolog
##ovir
felt
edta
igfbp
outpatients
encephalopathy
##ermic
hyperch
doped
##osoma
spatially
equival
flaps
disappeared
beads
carbam
worm
psychotic
##ationally
##urt
extinc
deposited
alters
reservoir
adipocytes
##ordant
angiographic
sediments
rock
stack
contribut
bk
teams
sox
libraries
crow
mirr
dystrophy
aggression
gfr
midw
##yan
conditional
traditionally
##oprost
##isely
gallbladder
pbs
entities
cadaver
canonical
harmful
outflow
##umptions
immunostaining
kinematic
format
##ophilia
##osensory
granular
sacrific
##oracic
polymeric
cleaved
covariates
pmn
sparing
##olecules
backbone
tubules
##79
interplay
orthop
f2
suppresses
2h
eta
##ystic
tors
vm
##fall
cxcl
convenient
##erum
##room
keto
freedom
fabrication
regularly
##lp
gastroenter
england
summarized
oxytocin
##chol
pgf
lamina
enlargement
pde
von
reass
methan
cdk
cabg
prepare
disordered
specialists
cosmetic
evolving
muscarinic
triggers
assumptions
infusions
mismatch
trade
vib
allerg
regenerative
##flex
updated
##obacterium
jaw
pacem
potentiation
190
124
##onymous
appra
##while
pcos
forens
mci
probiotic
hv
utr
##igenic
disparities
hydrogel
accumulate
theta
voc
##ullary
stool
contexts
metaph
imply
carlo
protects
insectic
msc
pertussis
hyperm
##tise
##achlor
procedural
dens
mtt
ingr
paradox
curcumin
abdomen
##rofen
##gd
recycl
approval
##120
avoided
jo
agency
350
cholangi
voice
diethyl
neoplasm
bilayer
manifested
##wards
sequelae
intran
brazilian
oce
##noid
abrog
polarity
elegans
neuroimaging
utilize
entrop
##rely
210
helicobacter
entirely
##eptic
photoreceptor
##ading
harvested
frail
##cell
hrs
herbal
biosynthetic
whereby
normalization
prosth
##onitrile
genera
##ldl
pten
cbf
sigm
anticoagulant
subtle
preferential
palmit
proliferating
##ucose
119
postulated
amniotic
desirable
dft
##oneph
girl
##umental
talk
constitutively
pom
detrimental
sma
realistic
##itamin
##ovenous
discom
fourteen
##respons
##grav
epidermis
glioblastoma
malnutrition
intersp
lidocaine
##yric
genomics
angular
permits
paid
##olol
fisher
##ji
physically
transpar
segregation
unnecess
worsening
negligible
landscape
##ky
microrna
##enoic
tomato
highlighting
nu
intravascular
ja
schwann
interm
helps
multif
erbb
qpcr
integrate
##vix
##72
failures
##yrene
malt
diffus
crossl
##quar
microbiological
imbalance
coexist
trajector
122
incorporate
security
suppressing
clostr
113
sj
##hol
style
postural
trajectories
germline
transferrin
brca1
##hi
hepg2
stake
freezing
ingred
hybrids
##ece
extinction
quer
brachial
possesses
residence
encephalitis
elab
conference
oligodend
recurrences
intellectual
##acrylate
025
cyclooxygenase
pyramidal
formalin
pak
##ucleotide
transloc
loops
##odeox
psychometric
fitted
tightly
##eliac
ovari
aggregate
##ocortical
##olism
caution
ageing
transgene
##ureth
glp
scintigraphy
assembl
magnet
nocturnal
dextran
oss
photosynthetic
moist
icc
##mus
##enoid
phenol
energe
trib
polyps
implies
underlie
attended
alternatives
statins
p16
##iella
13c
##iest
hysterectomy
transpos
ease
necessity
hypothermia
weigh
works
##rio
117
hypertrophic
##ker
phagocytosis
##elle
chondrocytes
##list
presumed
properly
##otropy
##odi
##rolase
microspheres
discomfort
physicochemical
microwave
thalass
nether
forensic
mca
nonh
mdd
supernatant
menisc
subpopulations
palate
nox
na€
federal
dha
modeled
iter
vte
ug
chf
##r2
##rofloxacin
disk
intoler
ward
antipl
cooperation
bms
detachment
parenchym
expensive
uve
fluorouracil
counting
cml
fid
dilation
archae
precisely
urethral
hsp70
##andial
dedic
##aign
hpa
circuits
histopathologic
clinicopathological
##tiles
pollutants
corticosterone
htlv
pharmacodynamic
normotensive
medullary
##gestive
circulatory
##iii
captured
collateral
cytomegal
ich
intakes
divergent
##arach
compensatory
bottom
choices
constric
rising
##anin
##rophot
bub
update
initiative
##atization
nucleoside
pater
waiting
##urations
tocop
percentile
tocopher
amylase
##ichi
happ
mexico
133
nct
netherlands
synapt
papillomavirus
chapter
thickening
rej
isop
visualized
reciprocal
leukemic
weaning
##borne
sociodem
mrs
cue
extremities
##ativity
competing
campaign
parasitic
polarized
antiserum
relies
boundaries
##atology
removing
tnfalpha
##aterally
necessarily
aes
##inement
amplitudes
observer
uric
700
hypercholesterol
##lyca
isomers
develops
quantitation
synthesize
tetrahydro
mutational
##oactive
braf
plots
##52
coordinate
scientists
rnase
##okinase
orthopa
sorting
neovascular
##aind
constitutes
solitary
contract
overexpressing
s100
corresponded
clustered
sixteen
patches
surviving
##inator
simplified
deficiencies
enteric
dislocation
##tide
vasculature
##ophenyl
sides
narr
##ourse
neuropathic
##ania
toll
stenting
ssc
cd44
haemoglobin
##anus
fruits
tlr4
odor
ppi
oxo
##ocysts
answer
linearly
worksh
metallic
lutein
quasi
nested
detox
monolayers
labour
sociodemographic
##tinib
pesticides
##vive
advers
micrornas
##omide
stoch
casein
kingdom
##oking
ash
note
vent
biphasic
##orporeal
instances
##burg
spray
sulphate
geometr
dedicated
cervix
scheduled
##amicin
##pd
rigorous
##requency
mich
bag
##otemporal
duoden
reperto
smear
febrile
septum
##iated
##ulins
pem
micelles
##icip
##yne
engaged
sedentary
##ynchron
##ievement
resultant
disappearance
##osom
mail
rpe
generates
dysregulation
uncontrol
abstract
barr
remed
newer
rid
vibration
##imes
cytomegalovirus
analytic
mets
##orated
employees
fly
operator
##oselective
##irection
##uns
histopathology
fluorescein
dimers
transplants
unw
characterizing
cardiomyocytes
##urc
islands
hypoglycemia
instrumental
##itid
##treatment
babies
##glut
swallow
##ball
##eles
osteotomy
ahr
##epsin
siblings
thirteen
troponin
##ifier
##lass
hydration
##lampsia
frog
obstetric
master
unnecessary
##ogeny
analogous
desens
achievement
adherent
hypothesize
preeclampsia
##jug
telomere
amen
phenylalanine
neurotransmitter
trust
##orable
filters
missed
pacific
epo
##ml
rl
hern
impression
##traumatic
overt
thio
illumin
encapsulated
insects
rotavirus
spectrophot
##functional
occipital
political
sweden
##ortal
##quis
ign
generations
enroll
chemokines
gamm
adc
oils
simulate
##andibular
indigenous
rhinitis
introducing
triaz
imid
hydroxyp
medulla
ca1
protecting
survive
horn
escal
cured
##yphenyl
disab
hat
##ulae
##oke
parenchyma
patent
threonine
latest
##0000
##uran
advoc
suppressive
h1n1
monophosphate
bad
galactose
cultivation
##akers
scalp
##imide
wire
interquar
methicillin
adenylate
##asting
telomerase
121
ut
triphosphate
labelling
hit
administrative
##itinib
excitability
##ranean
technological
prostatectomy
vertebrates
adam
municip
nadh
interquartile
##oxetine
basement
##arbonate
ketamine
microtubules
proteomics
brush
i±
##ifferentiated
gbm
npc
endo
velocities
##infection
neutropenia
distinguishing
##ositis
deleted
eosinophils
dap
roll
rms
sto
hematological
electromy
##cetin
##idym
fingerpr
replace
rfl
presynaptic
incis
##oal
condom
xenograft
gvhd
lamp
##ei
translated
checkpoint
radioimmuno
missense
congestive
##osex
##insulin
tuber
determines
##izable
##appab
road
antin
responsibility
desm
mangan
alive
##ughter
polyn
euth
##therapy
##worm
hematoma
lenses
superfamily
leukaemia
cha
##1b
exacerbation
##acs
astroc
toxicities
155
intramolecular
127
obstac
##du
##delta
acidosis
title
##ez
##obarbital
##atelet
ovulation
##illo
cet
recommendation
interpersonal
victims
opposed
maze
nationwide
spaces
stochastic
pdt
appropriately
##lofen
encouraging
##inities
internalization
tuning
npy
mediter
rapamycin
catalysis
eif
##amn
##hedral
infras
ampk
engage
##marks
representations
antenatal
subtr
hoc
radiologic
satisfied
neurotrophic
trabecular
consumers
anions
cd11
cw
crest
indexes
explores
perturbation
132
##ionate
kle
bg
nafld
transit
##ectory
vulg
ica
laminin
guanine
oxidant
ks
##itter
dependency
freeze
##otri
##icious
slice
calls
ecosystem
##band
pools
necrotic
tele
bony
orthodontic
parox
columns
cyp3a
phosphodies
epididym
tolerant
practitioner
trajectory
teachers
favourable
##ymethyl
corresponds
endurance
exercises
metrics
vena
rdna
##ulo
ischaemia
qtl
bonded
signatures
leaving
genotyped
eq
##ulsions
twins
malformation
accr
conflicting
stores
ozone
cryp
expertise
138
illustrates
mesoth
ascorbic
methylene
assignment
methodologies
histocompatibility
orn
##esus
##acheal
##ama
treg
##romic
##test
oest
unr
anticipated
##orylation
triggering
##alently
##atalytic
arrhythmia
ataxia
silico
##tivities
serotypes
macroscopic
trav
antidepressants
##aric
capt
homocysteine
pneumococcal
cryopres
existed
vibrational
3t3
##nitine
##itre
##omnia
comprises
##549
##ubs
##actors
##nm
lewis
thrombotic
retain
##ths
conce
terat
caro
methylated
##develop
prototype
conformations
3p
mechanics
juice
146
220
pharmacists
##itate
##l2
anthropometric
1970
encourage
benzo
invest
##oidosis
##empl
radion
hematologic
##iguous
deacet
perfect
##ithromycin
ciprofloxacin
laparotomy
##amol
hospitalizations
immunologic
abstin
transiently
thymic
modules
##odyn
sterile
accompanying
dispersed
hypothyroidism
workplace
titration
ribonucle
cobalt
immunogenicity
acetylation
radiology
multip
regulations
bright
searches
pathogenicity
danger
nalox
excised
trigem
typhim
combine
enlarged
leadership
metap
hsa
relapsed
##dc
seminal
plc
##iline
##oderma
##orax
amputation
webs
closer
audit
ecc
sentin
015
reactor
typhimurium
collecting
##nar
maca
amd
legis
cities
b6
opioids
resolve
bending
discrepancy
coat
##anding
cyclosporine
veterinary
##opy
##iber
www
ritu
propyl
curvature
raising
dutch
rheumatic
##ofrequency
##imension
aluminum
a€s
##ostr
silicone
depended
insol
##5a
##aca
progeny
zno
##ris
hemodynamics
##orex
gsk
fk
exceeding
leishmania
stressed
##uzumab
##luoro
allergens
secret
##afen
pax
pears
gentamicin
dependently
##itum
calp
competent
thalamus
commitment
nev
reoper
vegetables
occasionally
##quinone
neurones
##olys
supine
##bd
treadm
treadmill
spanning
palp
spiral
amorph
cil
##oxia
mediastinal
measles
postpr
##ulent
scf
oligonucleotides
rituximab
seq
slc
parasit
manganese
discussions
acutely
1984
consumer
caregiver
lactobacillus
preserving
vf
mip
hemolytic
##kes
##umps
proteinase
pparg
##genesis
expectancy
231
radiofrequency
nasopharyngeal
inheritance
##vular
assuming
cel
##iled
contractility
silent
transducer
personalized
rhesus
valves
camera
puncture
lymphoblastic
fuel
swedish
modulus
eds
144
preceded
##ills
##iles
void
specialty
pelvis
mediterranean
catalysts
infiltrating
##grp
dyes
##97
chemoradi
undersc
tonic
timp
bicarbonate
nephrectomy
orthopaedic
alternate
secreting
reactivation
anaemia
extracorporeal
addresses
ileum
012
radiography
electroencephal
methane
pbmc
compromise
isometric
##operoxidase
exclusive
##osexual
collect
dyspnea
accessibility
bevac
volumetric
naloxone
transported
ej
linker
stressors
##emed
viii
satellite
edi
bevacizumab
han
##mi
##eld
##onephritis
unfavorable
adjunct
smart
cpr
colonoscopy
resten
pha
##ortem
drought
broadly
statement
obstetr
proteolysis
individualized
hgf
interfaces
endocytosis
analytes
breed
enos
tang
ny
nanotubes
investigates
agencies
managers
subop
sedimentation
nodule
##roch
shapes
amphetamine
condensation
progressed
portions
##cg
epi
virulent
a549
manufactur
nose
##iterp
disposition
radionucl
configurations
cpp
verap
undetectable
administer
##ends
##zz
vox
dere
observers
performances
approximation
oxy
autonom
anisotropy
reinforcement
prere
cd40
motone
verapamil
surgeries
licens
psi
crown
microns
paralysis
strip
kir
vacuum
tidal
plain
deaf
globulin
morphologically
##64
theoretically
associate
electrons
ache
thaw
dal
discrimin
pearson
periv
##umination
histories
periphery
weaker
atrop
##ieties
laparoscopy
##relin
interne
##71
scavenging
primates
##oste
turkey
alpha2
detergent
wake
##optic
sentinel
affinities
rnai
microflu
testes
tolu
##bound
thromboembolism
hox
suited
ultimate
medicaid
##ogaster
gemc
semiconduc
##nic
##inis
tx
probing
arteriovenous
swimming
formulated
packed
148
gamb
globally
accidents
5a
lysozyme
seedlings
##ki
stap
hydrocarbons
letter
##adec
cathepsin
neighborhood
##pray
caroten
psychiatry
mandatory
##iders
explaining
platforms
antiplatelet
conjugation
##ocrit
thirds
iib
flash
biased
branched
sciatic
cigarettes
cage
##ewise
pir
##son
avp
##entanyl
informative
cava
cag
searching
inpatients
subarach
dropp
unless
ppv
conve
maldi
infrequ
homogeneity
tar
##opril
submuc
caring
##organization
##tigma
attentional
contextual
cornea
uncontrolled
vwf
tagged
acetab
tert
covalently
##ught
raises
##ogroup
gemcitabine
clostridium
tow
amphip
##aids
ton
redund
transmit
tetracycline
osteogenic
glucocorticoids
catabol
cholest
##ophylline
career
soph
neutralization
lept
tomographic
##agonal
foxp
begin
##aches
nhs
c18
endometrium
gliomas
ou
capacities
laryng
trigeminal
neuroc
vinyl
dbp
meanwhile
autoradi
osteosarcoma
extrav
colloidal
shortened
postprandial
inhab
##ofibr
independence
prostheses
exud
aligned
insomnia
pedicle
##erine
##hips
qs
globin
capill
spirit
##vation
##irectional
agree
nh2
##uminal
##omorphic
stably
problematic
heavily
diseased
posttraumatic
ibs
ubiquitous
1982
mannose
grew
acquire
s2
cytoskeletal
quenching
amorphous
##inoid
sad
infancy
rom
donation
germination
nrf2
dominance
stereot
##cephalus
sonography
vd
originated
ghrelin
emphasized
whites
5p
composites
##esthetic
monocyt
##ublic
sensation
aetiology
##adium
unm
mandible
afp
proteome
stabilizing
nir
##onder
enterobacter
outline
brachy
branching
##uploid
potentiated
##iff
implying
phthal
##amid
##ochlor
parv
vr
##cales
droplets
cd45
stopped
orbit
depolar
collapse
esi
vasculitis
dopa
innervation
##tillation
##61
measurable
nicotinic
tibia
##85
grafted
initiatives
lncr
contour
consciousness
##oxib
exclude
cholecystectomy
##opause
indole
eighteen
pacemaker
suboptimal
cylind
nanow
stoichi
defibr
mucus
cpt
pcp
meningi
dith
##ago
daytime
##ilum
139
##imensional
thinking
antisera
osteoclast
string
sit
##calc
calibr
suspensions
primed
erythroid
emo
intelligence
i¼
comprise
tocopherol
deeper
repertoire
republic
dealing
arousal
nodular
salic
diabetics
subarachnoid
cave
oblig
mutual
ingu
cofactor
qualitatively
enrollment
parametric
##olk
##imil
waveform
centrifugation
offering
cing
osteoblasts
rflp
neuroph
tablet
anionic
mps
impacted
fentanyl
##gh
inverted
keeping
biofilms
periton
contaminants
carboxylic
hen
potato
liv
##produc
contraind
synchronous
bnp
##acute
##aliana
decarboxyl
cannabis
restenosis
penetrating
##rophin
registr
##arges
##amate
pyrene
zo
sustainable
134
radioimmunoassay
thaliana
acceptability
entropy
##clim
##urate
enk
suspended
overd
welf
screws
##unctional
delir
torque
approximate
##odom
das
schemes
sickle
sweet
suv
physiologically
confounders
stigma
mib
attained
##ypsin
epstein
mammography
sugars
radiologists
beef
delivering
tears
mep
##acetate
##oted
##acterium
##ger
welfare
instrumentation
realized
ova
spastic
harboring
bifurc
##odextr
pouch
hrv
skeleton
menopausal
arbitr
manufacturing
repro
toxoplas
organelles
melanogaster
tal
prolongation
increment
morphogenesis
##iring
households
charges
dispens
##isal
##diagnosed
copolymer
##phen
unsaturated
bioinformatics
electrospray
##oto
foam
snr
##roline
indoor
academ
dfs
##oter
##azolium
afl
##ropyl
cd25
endocarditis
permitted
##yles
2nd
##facial
vitreous
coded
##etaxel
artifacts
pyridine
undes
mitosis
##bach
pose
solving
displaying
somatosensory
equine
moieties
accelerate
parenchymal
primate
hinder
ebp
kras
readmission
packing
undifferentiated
bbb
farms
ws
prescriptions
esrd
##uspid
docetaxel
oestr
##olation
wb
exploited
wing
nid
pcl
nhl
flor
99mtc
gar
combines
stated
replicate
nosoc
##gin
baby
seropositive
naphth
immunoblotting
##vitamin
diploid
##oplasts
uninfected
cotton
##xine
arf
taxonomic
irrigation
rectum
##cranial
##udine
elution
ensemb
dielectric
positioned
civ
##zer
midline
clade
reality
pahs
buccal
##oalveolar
quarter
spacer
dressing
trapping
##ialdehyde
##imid
teg
infective
anorex
rifamp
inexp
necro
prok
subcutaneously
scarce
thrombolysis
##fulness
hamsters
pcb
insoluble
##verte
alternatively
##ket
multin
013
pups
peritonitis
##opid
##ilin
compositions
##atil
##anyl
haemorrhage
##omplicated
preserve
poul
##itan
##aginal
bpd
chl
##omatosis
ovaries
unfortun
touch
holl
##ondii
##ima
##ythms
##agglutinin
distinction
freshwater
neutron
##cycl
h4
melting
broil
##ara
cutting
##ammon
##attered
symmetric
##ishes
nosocomial
inguinal
##1r
gov
osteoblast
##yrib
huv
##iper
absorp
firm
cirrhotic
atmosphere
amines
classify
parotid
016
obviously
illumination
chlamydia
atrium
##ogrel
prey
##udin
nsaids
##e1
oesophageal
##enders
checklist
eph
charts
instance
chimer
habitats
##actone
remn
reconstituted
##ulture
neuropeptide
##assays
##uling
##imeter
##peritoneal
##uli
myo
nigr
168
capital
effluent
residential
housing
monomers
isra
1983
vii
uncomplicated
chlorophyll
dbs
tracts
predisposition
outgrowth
zeta
helped
alloster
efficiencies
mhz
attenuate
broth
hyperthermia
compares
rhythms
package
supernatants
ppargamma
lactamase
##amins
cd14
3rd
precondition
##iov
##ectomies
##adel
##vern
iia
nifed
##riage
displaced
glutamic
mek
syncy
mms
bulb
##izz
commission
documents
collective
elemental
##itized
replicated
scot
mineralization
##axial
##eterm
suggestions
##ectile
carbohydrates
adduct
diarrhoea
##md
opac
##enn
emotions
mimicking
knees
136
continuity
014
undergoes
aaa
ventilatory
##terenol
digit
starvation
sorption
continuum
capillaries
nifedipine
##itch
lacks
##ham
sport
anap
delirium
##obi
inspiratory
leave
plaus
sew
distortion
monocytogenes
monomeric
##esi
pix
011
purity
ards
##cnac
methyltransferase
recycling
spores
paste
gln
pter
anomaly
atropine
lists
e3
medically
recognizing
##v1
gan
ocd
##itivities
ihc
5h
earliest
explains
phosphatidylcholine
frames
trh
##cope
fg
carc
defer
choroidal
este
##apatite
##iliated
possessed
##opoiesis
4a
##omotion
tilt
##iomy
ducts
lister
gcs
##87
##olith
bap
anp
quercetin
came
##ticals
##vef
##etts
thigh
h7
kc
drying
##epr
pharmacology
vesicular
grating
whit
##enses
tremor
n1
coastal
##neal
##idi
extends
##izers
sarcoidosis
##atrol
automatically
153
fibro
inexpensive
sparse
adenocarcinomas
kcl
r1
puberty
concentrate
altitude
encounter
substitute
mining
##ij
##att
175
postmortem
##ospital
homozyg
##astr
carnitine
ups
cultivated
isopro
rct
bod
coherent
plantar
prolapse
inferred
horse
hus
faced
offset
##cor
fibrils
##vention
##oproliferative
subclass
##ophores
##edicine
marital
dysphagia
xenografts
orthopedic
osse
##etite
##aicin
eat
ecs
khz
microin
##udi
ileal
steel
zyg
versatile
export
adopt
##ogether
calcitonin
sert
##veratrol
parap
transcriptom
makers
neurodevelop
bfgf
iodide
alf
grand
diaphragm
aiming
telem
uroth
##holders
apex
a±a€
evap
counc
lox
discrepancies
flies
prerequis
specificities
capsid
anomalous
##azolam
strictly
altogether
rim
denti
quantifying
##riting
##yday
hamper
##ocic
##best
##oliosis
##ications
##oxication
143
clopid
overestim
prime
3beta
##uliar
scanner
##oprotective
adher
desire
cavern
ensuring
litter
nv
everyday
##absorption
senior
##aceous
driver
tetrap
##157
peculiar
##nps
##leting
transcranial
interfacial
pluripotent
##hydrop
microcirc
clopidogrel
likewise
isoproterenol
##oglycans
narc
##orate
bridging
##chool
##ck
beats
stretching
forebrain
018
##ario
tubule
durations
arises
mur
occult
client
emptying
discharges
ptx
iris
figures
repeatedly
pcv
##imab
notable
epr
legs
##osm
##translated
intoxication
##itt
bactericidal
moral
capsaicin
dmp
resili
engr
acetonitrile
gastrectomy
posture
gle
maximize
accumulating
ecosystems
refined
catecholamine
disturbed
cultivars
ftir
hsct
tips
org
##uronic
##eas
##tt
coagul
##aryl
psycho
determinations
calculating
##anch
serving
##uber
hips
resveratrol
##litazone
unexplained
##hes
mcl
dentate
##abr
gastrin
1r
gpi
293
neighboring
decarboxylase
142
sheets
##opharm
bacteremia
justif
opportunistic
quartile
##itoneally
sister
cytological
elevations
galactosidase
myofib
psychopathology
offic
menopause
choose
bisphosph
##iximab
arthroscopic
transitional
editing
##gus
##optera
humidity
alternating
esc
dots
luteal
##si
duodenum
##istine
coronal
foxp3
klebs
##timulation
peroxisome
aneuploid
eyel
cpb
eluting
##ocryst
playing
anaesthetic
constip
##using
grap
neurotoxicity
erosion
165
##dv
ureteral
religious
parp
consolidation
gating
neurophys
abstinence
ciliary
minimizing
ovid
controversy
unfortunately
hid
##ancing
suitability
lod
##ocele
141
residency
homogenates
pyro
tensile
matern
aps
harves
repressor
mexican
017
operon
##inally
##imentin
cellul
l2
##rops
chromium
mycoplas
aba
dying
##atable
dispersal
900
cruz
dichro
##ygl
cxcr4
##uates
hemip
##wt
penile
blunt
nanocomp
disin
scn
combat
semin
biochemistry
rhabd
##icile
gata
vimentin
moisture
2c
aven
metac
cgrp
fundus
topois
##edes
resis
mari
preschool
pauc
vulgaris
glucan
esteem
##iaceae
hydrocarbon
stakeholders
##athers
hydrogels
ventilator
ocean
##inous
raf
cardiology
spear
pun
tetram
abstracts
inbred
ribose
##orphin
##aminidase
hepatoma
hypere
freely
dlb
molars
esr
contig
directional
prion
niche
17beta
optimizing
188
ligase
discriminant
chloroplast
apob
carcinogenic
declines
sensitivities
implicit
vagal
alloy
immunomodulatory
seques
supplementary
exacerbations
##trate
##know
ptc
##ju
cftr
gondii
carcass
##ocarcinoma
untranslated
friends
coenzyme
##actants
##dynamic
longev
##night
##iop
prednisone
##vel
belief
klebsiella
facing
##oxon
infrastructure
ehr
cock
010
bradykinin
convert
##ng
anaphyl
dehydration
texture
shedding
##acylglycerol
emergent
parenting
149
##otocin
consequent
unexpectedly
jump
##ronate
##oresist
bioc
##rotene
intolerance
imatinib
##ulinum
colocal
emulsion
paternal
electromagnetic
regards
##entified
##edullary
agarose
conception
undergraduate
modulators
burns
probabilities
transfusions
cyp2c
tymp
rop
##ofacial
erectile
entering
granulosa
##duction
overs
nematode
antagonism
##orial
symptomatology
##ason
flows
ribosome
mechanically
##aul
hrp
ors
##ulants
cruciate
##ander
aav
feet
intral
advancement
integrative
320
pam
intraperitoneally
retest
longevity
hsc
ctx
descriptions
scoliosis
music
1981
punc
vh
zym
effectors
supers
##arate
belongs
kj
##inol
uniformly
hunting
a3
council
restrictions
lich
glycosylated
##ulous
decid
feelings
deprived
##atheter
smears
facilitation
1d
lambs
epa
preinc
triang
adaptations
perturbations
photosens
lactose
infectivity
uniqu
extrinsic
proposes
##ocarb
flavonoids
standardization
ophthalmic
primitive
##icals
phone
##com
abr
choles
b12
depic
odont
swiss
scid
microarrays
corpor
##vertebral
lessons
stern
##iance
1c
##trial
##uents
academy
##bt
ken
retur
maturity
##cens
lumin
poultry
##bu
chitin
biol
stabilize
estrogens
##rov
biogenesis
##cl2
microfluidic
##rect
##con
reticul
operate
deph
cds
clav
difficile
interdisciplinary
##entic
autonomous
gabaergic
sla
phosphodiesterase
cbt
##erating
biotechn
##oct
intraepithelial
fec
##tii
therapists
oligomer
japonic
robustness
destro
360
adjunctive
sophistic
syph
contradic
norms
fossa
clonidine
malond
histochemical
aided
jug
th17
activators
eus
message
##pine
intrahepatic
vitamins
chemop
alginate
orange
piglets
crs
ets
centrom
polyuns
squares
neurodegeneration
hept
destabil
fuc
sq
inward
dendrites
prompted
partitioning
discontinued
gonadal
158
subpopulation
characters
##afenib
##ault
230
##py
##iana
erythropoietin
ulnar
freshly
haloper
corrob
##trypt
confers
trimethyl
emphasizes
ingest
thalamic
meiotic
##ainees
##beta1
##athyroidism
repetition
alert
##utri
olds
intermolecular
thiaz
subspec
attenuates
##kt
navigation
prothrombin
constrained
deuter
oligomers
haemodynamic
##a€¯
bph
##licating
cingulate
hyperth
twofold
##efined
loos
##ipa
##atoxin
147
##ylyl
episodic
ireland
ears
acclim
unpreced
haloperidol
intent
##ried
constipation
##oxal
tacrolimus
purch
references
##elity
parity
guar
ku
##ographs
latex
lvef
##ognitive
##orrhea
##usted
goats
gangli
acknow
leiomy
unprecedented
congr
modulator
passed
##ira
jur
outd
occasions
catalyzes
ionizing
uncoup
sativ
barley
annually
literacy
prednisolone
shig
implication
feces
mcs
##oviruses
##iatr
subcortical
quies
beams
appearing
malondialdehyde
shut
evaluates
##100
scattered
prokary
linole
hemangi
yolk
incorrect
bari
##emoral
switched
incidences
##iling
concurrently
##ropr
aggrav
##ken
##lantic
psychotherapy
lies
hyperv
degrading
##olinium
multifactor
emerge
polyunsaturated
resembling
omp
##etical
karyotype
##quilibrium
upr
gaussian
sevent
shifting
viewing
morphometric
extensor
grey
brachytherapy
ancient
subscales
mbp
##elastic
streptoz
thyrot
setup
official
##amphetamine
bronchi
transd
speaking
##idia
cca
aesthetic
myx
##odermal
nanocryst
diurnal
##uistic
crops
intracerebral
emphys
##cholinesterase
disadvantages
coal
bundles
savings
tent
danish
inference
##abain
stemi
pesticide
atl
lobes
vegetable
afferents
##iax
folic
advis
cholera
iiia
imposed
supplied
arranged
consor
olive
autonomy
dropped
autoimmunity
convergence
resilience
p27
adversely
helping
##force
abrup
##bf
harmonic
predisposing
##alg
programming
##ropol
spectrometer
arabin
nigra
dvt
##formed
workshop
haart
allosteric
154
eukaryotes
mirror
##omegaly
cotrans
dosages
##param
subsp
dichroism
permeation
recre
easier
looking
##iva
lacked
lot
trout
##tebr
##96
neuropsychiatric
files
ouabain
gases
occupied
##orum
152
serous
hsp90
vegetation
##aec
sas
##roportion
mutagenic
reconstitution
iat
standardised
eic
##entre
cavities
##amides
bronchoalveolar
annotation
##electron
catch
multimodal
tic
pores
b3
##algia
##emias
asn
exempl
places
laws
infan
droplet
eosinophilic
adiposity
spearman
localize
hrt
##94
nociceptive
crossing
##acia
##icked
srs
carries
sitting
ideas
##uma
spiritual
vldl
diazepam
hns
##ervated
dwelling
##lycaemia
saving
unequ
mev
etop
nonf
polych
notes
anorexia
eug
ruptured
conferred
ltp
nep
##imetic
kt
##hp
280
publish
pyrrol
udp
versions
atlantic
figure
appendic
trainees
fim
thousand
elucidation
couple
schizophrenic
desensitization
gmp
tp53
topological
groundwater
filtering
##othiaz
supplemental
##imal
aldehyde
##issive
anastomotic
##nac
##illing
##atally
##othorax
##birth
xl
reoperation
sphere
dipole
foster
pcna
toc
sorb
creb
going
oligosaccharides
atg
wc
capsular
##ophenol
h5
ao
192
restorations
otitis
##eratin
chemotactic
nonr
atcc
##obia
##ipramine
adjustments
##ersed
purine
statistic
inducer
homologue
elusive
##oinos
grip
cred
predominance
chaperone
oroph
vibrio
etoposide
radiolabeled
thyroxine
celiac
vasoconstriction
tsp
##his
basolateral
campyl
swallowing
qrs
tracing
fairly
annexin
multifunctional
bupivacaine
cytometric
prevail
coma
secretions
##f4
seventeen
meals
hypop
holds
##exual
wbc
peers
gate
ecology
##forward
panic
##uish
normative
fluxes
cps
salinity
locomotion
156
disrupt
multifocal
visually
##enium
cyclodextr
##ano
gbs
precl
##olipids
afm
dmso
fails
oat
eralpha
pericardial
friendly
messages
strips
##angu
crystallization
possessing
choosing
lad
mpt
strands
solute
##hem
cruzi
epithelia
enkephal
sts
biocompatibility
hepatectomy
convenience
adr
ontario
##icate
disproportion
solve
pull
carbonate
fidelity
polycystic
fi
writing
bos
chym
hydrocephalus
##anous
gastritis
ais
pineal
polysaccharides
theophylline
echin
tinn
bariatric
##vert
##gran
premat
##atism
##apopt
collision
stereotactic
##etra
campylobacter
orthog
readers
lever
270
v1
pertain
oedema
##trials
nigeria
##ifies
lifesp
beet
utero
##glyc
topology
##iens
hek
##alis
game
topoisomerase
detoxification
addic
actu
##observer
##onergic
exceed
biore
bz
reconstructions
##enicol
psychology
##imburs
##obutyric
exit
fractionated
##oplatin
##yll
transposition
wol
chicks
worker
ortholog
considers
moved
notic
intrathecal
seb
stressful
outlined
benchmark
you
subacute
thail
mimics
imrt
shortly
terres
tinnitus
##viruses
purkin
worked
gathered
neb
carotene
wit
purkinje
thailand
implantable
speciation
harvesting
teen
seaw
##wa
holding
hematocrit
gaz
##ecu
genotypic
biophysical
hydroxyapatite
lytic
patterning
counselling
ancestral
photosynthesis
coff
endonuclease
##istinguish
reimburs
##adine
contraception
father
uveitis
drawing
intercal
nont
c3h
nonm
trophic
##usions
neurogenesis
myrist
##agues
mountain
wine
##rna
steatosis
##olor
vicinity
doing
turned
productive
##tz
glandular
clinicaltrials
regimes
silk
coexp
genotoxic
##etent
guiding
insignificant
imposs
ecd
forsk
substantia
tka
chorionic
hbe
clarified
##wich
seasons
acetabular
immortal
##istan
dereg
neurogenic
manus
attendance
##i2
facile
erup
isoelectric
microbes
cited
##fraction
ewes
explants
capsules
##yridine
antiproliferative
bpa
dyslipidemia
immunocomprom
retroviral
honey
modular
##inone
tensor
constituent
quit
augment
book
177
antinocic
equil
companies
cong
rick
multicentre
bioassay
##91
norway
impairs
##ony
hk
##02
paroxys
##airs
supervision
warning
anneal
hypothetical
damaging
ral
caudate
grains
antagonistic
##imotor
##entral
solved
voxel
streptozotocin
##ado
phosphoryl
##opsin
cdnas
plasmon
cz
##elioma
biases
##well
cohes
catecholamines
supram
##istinguishable
peaked
consultations
syphilis
irs
mosquitoes
eliminating
hyperal
topography
redistribution
aromatase
enteral
assume
cts
schedules
##b3
sophisticated
heterozygosity
frailty
leukotri
##a°
allografts
debrid
##oxazole
serotonergic
apl
pole
ticks
##acid
willingness
chief
amy
monos
interested
influenzae
divertic
hydrolase
ali
##itoneum
restraint
##eit
##class
cic
carbap
cores
151
##enone
stic
multidimensional
lepros
flexor
glycolysis
erythromycin
ventilated
phagocytic
distraction
fibrotic
##avirin
sulfide
polyphen
chemotaxis
xi
immunogenic
grid
019
addi
etiological
belonged
jaund
triplet
cytokeratin
handed
taurine
cope
##ocytoma
tricuspid
manuscrip
absorbance
narrative
##bronch
##thrombotic
2r
##no
bang
digestib
##562
##ealth
dephosph
tms
##adone
dissip
##bens
replacing
advent
multifactorial
advancing
splitting
##idis
assimil
vmax
carboplatin
excreted
histi
msm
beat
##okes
h3k
projected
shoot
##isson
atriov
##odia
hens
pfc
neurosci
thymocytes
pitch
##olia
chew
homa
atrioventricular
invertebr
smallest
thromboembolic
crash
tha
presently
##olus
gdm
nanostructures
hollow
sacrificed
reorganization
preex
24h
amyloidosis
unidentified
pbmcs
##atized
##obiotic
indistinguishable
lifespan
siv
societies
concomitantly
##c3
dentists
substituents
renewal
##mer
##ardiac
##drug
microglial
##igibility
##house
introns
thalassemia
opinions
mif
##otoxins
o157
consecu
##enedi
hairpin
wedge
kpa
ch3
forskolin
electrocardiogram
lentiv
store
luteinizing
##kb
arrival
stems
mont
sepha
##osperm
##oluminescence
##unted
bisph
varieties
ribavirin
##ip1
embryogenesis
attracted
discs
sic
strategic
notice
thy
insert
vasoactive
bilaterally
resections
flora
vegetative
colleagues
157
fad
instructions
##ropin
sepharose
alcohols
gins
obsc
##obium
filamentous
##asth
equipped
accumbens
superc
benzodiazepine
botulinum
nanofib
##eresis
hydroxylation
ending
##ocyanate
##icide
lbp
##qi
coming
audi
##elic
editor
intrig
homo
succinate
immunocytochemistry
sounds
resum
mm2
hetero
maneu
hong
mant
plausible
ampicillin
##here
win
comprehension
biosensor
algae
polyd
methadone
consecutively
twist
collections
toluene
chrys
eae
##ophthal
econom
pss
##itants
px
##kinase
receptive
260
recognised
immunocompromised
synt
fvi
acetyltransferase
transportation
ara
retroperitoneal
planes
pharyngeal
##tomycin
ferric
##oem
organisation
sandwich
reticular
ingredients
tether
mpo
sp1
##apoptotic
##tomyces
##epile
reprogramm
##oge
cta
l3
##idus
pyrimidine
appoint
aggregated
gpcr
asbest
thousands
relapsing
prerequisite
##iabetic
epiph
oblique
##erent
restrictive
occlusal
msec
oxygenase
helices
##oxins
workload
ec50
diode
##ammonium
##azepine
opt
packaging
tan
explanations
hypn
anhydr
##ellate
imper
leprosy
diluted
##76
sensorimotor
##yal
yag
poses
intravitre
glcnac
##gar
noticed
evolve
liquids
ncs
##tian
1979
ampa
##ifers
gravity
elastase
firstly
pct
##onad
##omeres
feeling
bromo
neovascularization
eligibility
serov
orch
amphoter
inspection
streptomyces
174
sigmoid
isoflurane
shrink
incidental
randomization
jugular
flowering
labile
devoid
##opeptidase
huge
tried
cleaning
pher
compulsive
acetone
steep
pedig
disclosed
insertions
neglect
750
##net
ejac
interneurons
##uccess
hyperinsulin
albeit
chloroquine
sialic
dissociated
folds
buffered
recon
##astin
anthrac
blacks
mesop
intranasal
reasoning
authorities
##amphenicol
ovariectomized
protons
safer
metam
falling
t2d
cd13
##inescent
minus
reconstructive
6a
deliveries
ingested
drg
mastectomy
fluc
##74
business
hypercholesterolemia
nonsm
##osphere
triage
married
rostral
calorimetry
damp
mgl
fx
antipsychotics
periodicals
alkaloids
##ael
sixth
phle
##uccessful
midazolam
tmp
debr
lethality
aper
overnight
rash
##oscope
swabs
inspired
sequentially
iol
conjunctival
cocc
##ilton
price
thromboxane
arbitrary
ban
nationally
urothelial
mesang
##zo
synthes
revolution
nephrot
caesarean
ceramide
unsuccessful
##ineral
immunoglobulins
##odys
159
pneumon
verification
metropol
b7
neurite
company
iterative
metron
mitogenic
occupation
acne
##oxan
pim
octa
terminated
intriguing
glomerulonephritis
secrete
gleason
gib
innovation
sickness
##endicular
trachea
##t2
saph
doubling
erythema
predictable
legislation
dynamical
uvb
visualize
1500
##ko
ye
##hc
ua
igg1
poisson
comparatively
adhesions
drb1
interl
neighbour
gfap
##nem
##transferases
##yglucose
lond
cnv
linearity
polymorphonuclear
transcatheter
paucity
emphysema
##oneg
bmt
##through
oxford
pover
##cortis
favored
bedside
mth
repaired
elsew
herpesvirus
poverty
impossible
delineate
elsewhere
pufa
pag
pairing
desat
vigorous
pc12
analyzer
transparent
bread
latencies
retinol
##inus
discipl
mismat
wavelengths
##wid
mycoplasma
##azo
perpendicular
nephritis
gtpase
destructive
caco
valvular
census
cec
##bg
lex
covers
hamilton
erp
sutures
##bp1
##actable
##aned
205
neurodevelopmental
##loro
gadolinium
wheel
##a€s
##uridine
advantageous
oryz
migratory
infantile
prodrug
contrasting
subscale
proposal
lie
invited
imt
##graphic
anticonv
melanomas
transduced
##urf
k562
##ethanolamine
##tizing
suck
trisomy
paroxysmal
##odipine
pherom
##2o3
abrogated
photodynamic
##ront
##implant
cuc
cct
##emide
bla
till
pcbs
dysm
dx
bear
multile
listed
vasodilation
##align
diagr
bomb
synucle
noneth
row
smc
compensate
##ofil
##ulph
orthotopic
rescued
syring
oestrogen
##rus
voltamm
filtered
ninet
hung
##noea
aza
occlusive
appetite
pharmacotherapy
pea
inotropic
nonetheless
terrestrial
warming
##utter
hev
mist
nineteen
assurance
##itates
breeds
nmd
182
porphyrin
analgesics
appendicitis
costly
nucleation
##ceps
antidi
coffee
##yb
saw
gauge
##nish
chloramphenicol
sln
microvess
gum
uniquely
unfolding
diphosphate
portable
##inia
spong
vdr
##had
dimeric
i2
prostaglandins
wards
##1a1
igg4
cytosine
survivin
collagenase
pigmented
investment
afforded
listeria
virgin
catabolism
cmr
remodelling
35s
mao
crack
encapsulation
fes
micropartic
tcm
##ovol
kernel
disaster
pertin
confusion
frameworks
hallmark
alleviate
immersion
dol
##ref
obliter
registries
associates
ulceration
##ycle
##bing
instant
nanoscale
nach
radiosens
recoveries
denervation
dss
##hu
synuclein
preconditioning
##icine
hydrolys
##ynch
manipulated
trypanosoma
hidden
qrt
cyclohex
encouraged
##uce
plga
tetanus
dab
utilizes
lysosomes
solids
worth
formaldehyde
185
defence
5d
depress
ornith
acetylcholinesterase
l5
##93
shares
interconn
harvest
mics
ctc
leishmaniasis
ascorbate
##b4
##oinositi
harmon
chambers
g6
hyperpar
hydroxide
institutes
biodegradable
epist
##tryptamine
p65
mitigate
conting
dimerization
coatings
resemble
##meth
heroin
templates
##isch
rbcs
penicill
##yron
178
occupancy
##osecond
debridement
phylogeny
proliferator
##anil
trin
torsion
pyroph
astrocyt
##olase
fingers
##azepam
occluded
jaundice
morphogenetic
##ozapine
insem
spirom
convergent
lu
synchronization
originate
midbrain
mannitol
granulocytes
awake
confirmatory
##ocystis
synapse
##df
##april
organis
cassette
##aminophen
##opent
serocon
clinicopathologic
deployment
cd2
plei
thp
digested
##retin
spikes
##lamed
trapped
codons
##uresis
junctional
zoon
catast
esterase
##brt
begun
chondro
##uprofen
##atility
consortium
intima
relates
emitting
groove
constituted
##sulf
guarant
pointed
monoamine
aggress
reader
kong
epig
atresia
nip
amphotericin
think
##astically
puer
trast
trough
priorities
##otecan
##eastern
lec
disciplines
egfp
radionuclide
hydrodynamic
patellar
##anda
coordinates
supra
0005
popl
territory
##pg
paracrine
162
dtpa
hms
##orus
graz
225
slit
##oplasia
glycosamin
sct
cephalospor
ferment
valence
##inesia
ovx
steroidal
trastuzumab
osmol
disclosure
sibling
interpreting
##arby
failing
arsen
phenyle
hydrophob
##arith
##entanil
##aventricular
appraisal
##eprazole
repressed
metalloproteinases
edges
said
glucopyran
oxalate
portug
asparag
mcr
##adj
##2c
abrupt
dor
declining
mct
fathers
straw
ensemble
strikingly
funded
ecmo
narrowing
##life
4th
liposome
moments
##phase
trimeth
ud
##iculus
viet
##urition
orthogonal
g3
bite
saudi
devast
infiltrate
phenylephrine
##brand
intractable
028
ibuprofen
##acea
rotator
sarcomas
craniofacial
acetaminophen
fvc
adrenaline
##isters
##tructured
motivated
micronucle
robot
sterol
london
##uro
lining
nuclease
quater
complementation
thro
tender
unev
antiepile
shot
temporally
positional
rabies
imprinted
chemilum
layered
##600
reinforced
vehicles
##terolateral
anchored
necrotizing
##ap1
kar
1978
ems
##plex
transfers
ams
##itely
paradig
philos
cream
residing
##lys
neurocognitive
##ao
analyte
164
##attr
doll
tcp
linoleic
ptp
ori
glutamyl
##ofuran
superiority
pq
infect
##tail
bead
proceeding
immunocytochemical
whee
paradigms
ccs
##ineural
scholar
tnm
bifurcation
##omatis
hundreds
reviewing
specification
arres
workforce
inclusions
goat
deformities
methox
ultrastructure
024
clozapine
authentic
kinematics
macroc
discriminating
spa
repeatability
halluc
bare
governing
##ubated
coexistence
##rical
##urethral
strengthening
divalent
androst
hampered
##uptake
##cys
lect
constriction
feline
dies
femor
ended
166
surrounded
##juana
endors
boost
enkephalin
anchor
cpap
apoa
adipocyte
comes
gef
aeg
ternary
##certained
isotopic
opiate
021
herbiv
injecting
##estock
energetic
anticonvuls
statements
##opolym
tunel
##oprote
cycloh
herd
infliximab
masked
pictures
xr
washout
valpro
doping
reflectance
livestock
monoxide
##orphic
cadaveric
32p
macromolecules
brass
initio
opened
a€¯
subfamily
logarith
enorm
dissected
pressor
underestimated
##olymph
ordering
compressive
opens
bacteriophage
integrins
sonographic
outper
contracep
imaged
scap
027
autocrine
##nc
asbestos
ascertained
##yrid
mobil
mesangial
pertinent
cms
tuned
glycosyl
burk
stratum
guanosine
nes
167
spore
sertoli
##aked
264
##recogn
##ja
relapses
##onge
metropolitan
##achol
##akary
anatom
denaturation
sv40
stz
##orphine
permissions
reuptake
binge
remainder
outlines
approached
hfd
##anges
1975
##acetyl
plug
intravitreal
surfactants
maintains
backgrounds
simvastatin
compensated
##eller
##idinium
districts
##oab
##oned
placing
##entistry
##arone
rods
begins
195
basin
pms
##gesia
drops
friction
##icially
##imumab
nanor
bean
noncoding
snail
contraceptives
neglected
arrested
##arrhythmic
discer
023
##idene
scs
caloric
sewage
encompassing
##ocutaneous
##86
crim
paw
luminescence
##uctal
participates
explos
install
nitroph
computation
naphthal
barb
rendered
eclam
atlas
chir
toxicological
educators
streptococci
dwi
retarded
disparity
mmps
culturally
transgen
marketing
tactile
lactating
0a
roughly
slides
microbiology
myopia
##phi
trachomatis
##x3
##olated
restoring
pra
nh4
motions
adequacy
##tilled
jet
##rals
comprehens
virological
hemolysis
hnscc
##osulf
##ald
##arring
niger
straightforward
chord
cnt
empower
aun
granulomatous
##apeptide
##iteal
##onates
spatiotemporal
aminoglyc
worst
roughness
blindness
msi
coum
pis
crystallographic
pm2
inflamed
mj
pulsatile
##yseal
oesophag
##yelination
mycobacterial
creates
##adesh
commentary
elucidating
translate
adri
tunable
5th
reaches
dinit
##vian
bridges
wky
osteoporotic
sca
labels
ez
averaging
##othane
whitney
glycans
fragile
harbor
engraft
malays
##osomiasis
dentistry
172
##ivocal
multilevel
163
##atre
##trac
banding
gpr
oscillatory
mmc
169
transactivation
##umann
##ocks
interruption
recap
invariant
##ini
permeable
##reval
glycan
mts
qds
adrenoceptors
unmet
crossed
hyperparathyroidism
hyaluron
fna
eyelid
##trated
indol
marijuana
semiqu
polycyclic
acknowled
##athic
connecting
benth
cancerous
syncope
abiotic
metabolized
warrant
##elected
semiconductor
##yryl
elasticity
retraction
##ocyclic
graduate
crosslink
synergistically
##ostat
cyclodextrin
amphiph
syngene
leader
combinator
chi2
alcoholism
operatively
computing
##legia
pathogenetic
spermatogenesis
anaplastic
uncon
eclampsia
wearing
##opeptide
reti
carbachol
microbiome
##idomide
enterococcus
infest
infertile
vietnam
##lora
choroid
refinement
##3b
assemblies
irf
lignin
wille
debris
herds
israel
6j
supramolecular
amenable
##84
nondiabetic
161
visu
tregs
glo
reactiv
dar
bird
interrupted
##light
##ospasm
##osyltransferase
bit
e6
drift
overlo
ovine
dermis
auxin
peptic
lacz
seropreval
chemopre
interests
oncogenes
weather
##tegration
amplic
heparan
cd16
msp
176
##ecre
judgment
##olded
paramagnetic
autoreg
##orhabd
##orth
##lasia
impulse
##etron
halothane
tends
moll
##omogene
execution
twitch
unint
bleomycin
syngeneic
fluoxetine
dividing
simulating
crispr
triton
ngs
counterpart
##rosome
hhv
turk
026
##dehydes
blastocyst
destroy
anger
##orphyrin
saharan
rfa
xrd
argued
mtb
##uod
##ille
lym
cascades
ascribed
##sr
captopril
1960
##82
soleus
##iensis
##tus
accred
##peridone
heads
resembles
##ocyanin
vor
placent
civil
hypoplasia
edition
megakary
amoxic
##osurgery
reflexes
digoxin
deoxyrib
bradyc
throat
xenobiotic
preparing
ink
bovis
dilem
no2
devastating
concan
nonun
icr
premenopausal
aminobutyric
ranked
immunohistochemically
##ymic
neurotransmission
agriculture
cd20
fluctuation
lun
orientations
##kal
hcmv
genis
unip
nhe
chemoattr
mucinous
ventricul
##years
022
ventricles
muller
slo
cyclosporin
reviewers
##ralpha
colch
antagonized
phosphoinositi
willebrand
dnas
##iner
cannabinoid
morbidities
ordinary
##aki
eluted
gaining
completing
mans
212
situated
##kd
factorial
clotting
evening
gerd
supervised
pill
##orectal
gdp
##arenal
devised
invasiveness
intercourse
hook
answered
submucosal
corros
explicitly
cyanide
objectively
wavegu
denmark
abnorm
oscillation
##ecoxib
compatibility
norw
ikappab
##ingly
technically
deemed
evac
philosoph
##thi
bib
jak2
sponge
him
shrinkage
convention
rhabdomy
4d
dams
##faction
androgens
acted
##ami
gaze
nonster
lem
acinar
##atine
sof
fulfilled
consul
dialys
reprogramming
hydroper
##transplantation
anxi
##atergic
acp
2d3
s6
##ophosphate
##ifera
breaking
##onasal
gynecologic
##eve
breakthrough
limbic
paralleled
superimp
bloodstream
rew
strengthen
##asin
lpa
uncovered
defibrill
##bronchial
electrically
ator
unin
royal
rectus
immigrants
quiescent
prur
fistulas
equivalents
181
tetrachlor
combinatorial
exciting
##125
uti
##bia
preexisting
suspicious
jejunum
linguistic
dysk
germinal
##holder
amphib
k1
transformations
pcc
publicly
saphenous
supposed
intras
probnp
lying
vn
186
push
lysates
psoriatic
mortem
pda
shaping
256
quadric
lipophilic
##p4
biodiversity
pathologists
##idate
gastroesophageal
spacing
##mum
##amers
ontology
committed
synergy
183
anticoagulants
elongated
franc
##otracheal
unrespons
castration
etiologies
mildly
##atars
pleth
hemostasis
alkali
##mitters
##axin
answers
etiologic
disrupting
proteoglycan
bun
mers
bilayers
enantiomers
##omatic
acidification
scavenger
owners
lati
liposomal
airborne
mm3
reimbursement
##enh
neurosurgical
disabled
obstacles
##olis
kain
##avalin
ready
canals
trophoblast
##d6
lasted
incorporates
constitution
ppd
geor
##89
drinkers
dimeth
subtraction
referrals
solubilized
adl
##book
##p3
cylindrical
hazardous
spiked
##oviral
kat
iatrogenic
##gamm
eradic
infrequent
monoc
##nv
035
##ogue
ltr
doubled
oxides
##bles
##anthine
billion
enthal
boron
##gluc
bioactivity
macrol
aldh
outward
antiepileptic
##oretin
catalyze
##ieu
##onegative
##187
dystonia
##azosin
##anat
nlr
pertaining
##aban
##arity
michael
glutamatergic
occasional
##itories
epicardial
msh
##ql
decompens
oligo
crh
ankyl
##anum
##lofenac
nephrotic
staphylococcal
##ava
chop
##mr
##1p
traction
electrocardiographic
tendons
transv
##occl
bam
##athetic
historically
cfs
atorvastatin
obstetrics
serologic
##imine
expectation
loh
instillation
neurole
pean
witness
larynx
0002
##ispens
pie
flower
##imilar
abnormally
imperative
artem
annotated
lax
chloroform
arose
bcs
pharmaceuticals
washed
escc
concanavalin
fusions
chondroitin
seroprevalence
vasodilator
zirc
biphenyl
checked
genistein
analysing
sga
adds
visited
cbct
abscesses
##yzed
reproduce
scanned
cytologic
disequilibrium
##ulators
##ximal
fluoroquin
cina
homeostatic
photographs
dnm
##width
oestradiol
##oped
phenanth
worms
sevoflurane
spectrometric
richness
probabil
l4
nis
##acl
rumen
reared
cd28
204
recognizes
##cus
173
reacting
sarcoplas
myofibrob
mediation
propionate
203
polyst
indispens
fellows
motoneurons
nz
motivational
multist
unified
elementary
seeded
enfor
##omandibular
222
dysfunctional
rag
suction
mutans
xanthine
biomaterials
stricture
drastically
p300
controll
axes
##olab
##utin
##uman
##arians
unrecogn
171
encounters
burnout
##ospecific
marginally
ameliorate
abor
municipal
202
oleic
poland
feat
##03
retaining
nsp
##iro
denture
##articular
shallow
carpal
spro
ccr5
competency
symmetrical
zol
chemoradiotherapy
metronidazole
amoxicillin
intraventricular
rhamn
ky
probabilistic
engaging
bronchitis
svr
engraftment
po2
colchicine
##itidis
carcinogen
biop
zoster
ch2
synchronized
ideation
##ovalent
ranking
sacral
motile
pgf2
gil
glia
##rote
dlbcl
microstructure
moss
pbl
concordant
pph
obsessive
disag
methacrylate
exome
lipoxygenase
mite
mmr
##timulated
sinusoidal
pcd
cavernous
uf
uncertainties
lamellar
t7
outdoor
correlating
##rogl
remnant
##mas
##acillin
informal
##uin
atra
deer
##ocol
preventable
nicotinamide
ivig
ffa
birthweight
albino
defines
anisotropic
speculate
justified
nong
tags
p2y
##92
##idation
intimal
dnase
sett
pubertal
microcirculation
ipv
closing
##atases
##entin
##onide
##west
ecz
ionophore
187
##olysin
pla2
##pic
isopropyl
sequestration
dba
serogroup
foramen
migrate
##mosis
emphasizing
brack
neurotoxic
##otypically
steric
mimicked
dermatology
eia
manipulations
melanin
decided
##hai
csp
intratum
ria
##word
annealing
folded
healed
oncological
smoked
bacilli
introduces
osteomyelitis
diversification
##erae
##ibrom
184
endocrin
##ateness
1976
tlr2
butyrate
myogenic
##ogluc
lov
heated
intimate
dithi
intervertebral
rigidity
mdm2
inhomogene
ssp
fatality
foetal
##ximide
slowing
triti
##ocalcin
cloud
thoroughly
diaster
calibrated
duty
##urred
azo
##otonic
diuretic
beij
farmers
substanti
sorafenib
ada
gynaec
mounted
epidemics
quaternary
seawater
##ogle
##inic
vasoconstric
shaft
serr
handle
try
faecalis
titres
redundant
physiotherapy
##gc
yeasts
##awa
thior
osteoclasts
gpa
ornithine
burd
staged
##ocus
virions
alarm
esbl
overproduc
rankl
cddp
exocytosis
tcdd
cognate
antim
##aterial
spons
degrade
vincr
administering
##s2
disposal
ridge
##opamine
atrophic
vertebrae
##ocap
asph
mucous
distorted
representatives
thrombolytic
insult
cep
1977
##arf
finland
glomeruli
##aded
ei
##ytically
neurotransmitters
alex
cres
##operiod
inacc
helmin
lor
kyph
payment
##ofemoral
sclc
manually
metaplasia
##cam
readings
nag
##pred
clues
correspondence
##tron
ellip
underp
expense
acinet
centrally
song
##asion
subdivid
##tica
macromolecular
stature
spheres
prison
hyperlipidemia
##ocene
pairwise
calpain
plastid
wait
secure
rhythmic
pta
hydrophobicity
##can
macaques
escalation
vb
cancell
nyst
coarse
paran
diastere
##ivir
dosimetry
##aka
miner
##epid
hed
listen
inr
ferm
antiarrhythmic
glas
dsa
206
##ugg
cinahl
transmitter
enormous
tad
therapist
dural
strokes
russ
##101
lichen
boos
##table
acanth
transection
##allic
artifact
snap
##oselectivity
myeloperoxidase
##oca
##robenz
208
thyroidectomy
##urus
diclofenac
fe3
##ye
##actam
perivascular
durable
sleepiness
##berry
belg
relatedness
vincristine
graves
##ishment
acinetobacter
homologues
gastroc
quinone
##ein
kp
##oencephal
longest
uremic
immunocompetent
haemophilus
acrylic
fertile
meiosis
##ellosis
##atech
sarcoplasmic
heifers
constraint
kall
oscc
##utions
elite
quadriceps
photocatalytic
mole
dinucleotide
splenectomy
mitomycin
##rb
lpl
judgments
prism
adriamycin
hyperalgesia
transaminase
violent
leaflet
fluconazole
2s
##enzymes
qualified
cubic
natal
chori
nanowires
needles
toxoplasma
vpa
porosity
naa
thc
ossification
exploit
##field
gastroenteritis
interrel
migrating
exagg
incen
endotracheal
##arine
immunophen
##endoth
##gut
mycobacteria
classifier
empirically
##130
no3
unpredic
memories
##oron
climatic
##orrhiz
galectin
ctla
fmol
jejunal
polystyrene
dihydrox
isopren
##thermal
029
pointing
laun
suggestion
##fly
rfs
unre
absorpti
##omib
##eptin
harbour
heterochrom
##ocaps
photoperiod
##mn
passing
scene
##lysis
##olones
leyd
markov
imprinting
216
caen
abdom
manuscript
holes
cron
unal
please
nanomaterials
##ocent
calcine
vals
##othyron
wales
hpr
ribosomes
unh
irritation
179
evolutionarily
vv
disinfection
mediastin
societal
carbapenem
##acies
adoptive
gluten
conflicts
glycolytic
provinces
interior
euro
pharmacist
##transp
stacking
contributor
neurology
meetings
letters
weighing
copolymers
gout
##apsed
fove
deacetylase
skew
cyn
classifications
fiss
granuloma
flowers
##s1
##thoracic
descriptors
##ytoin
preh
##iplatin
cid
herniation
calcineurin
characterisation
fun
carn
methamphetamine
homologs
##po
intrag
032
cryopreservation
evidences
##r3
specially
##orhabditis
rifampicin
##mu
efferent
carriage
comments
arrangements
footpr
headaches
##ilance
dre
nations
dhea
dangerous
indispensable
genesis
##icides
hyaluronic
neurofibrom
myopathy
rotating
perceive
fibros
hypertonic
beck
pumps
extrusion
##aresis
pyel
v2
##tles
mesothelioma
##onation
##odopa
glucosidase
hur
partnership
broiler
tu
lose
scarring
denitr
##yelin
compartmental
##acetamol
##fully
facet
gwas
pei
covariance
affiliated
yog
##83
phenobarbital
g4
abi
grp
infiltrates
raph
##lt
nematodes
educated
leptosp
osseous
preincubation
##nan
##ussion
o3
dispersive
forests
practicing
brdu
ministry
gun
sinuses
carboxylate
texas
proceeds
metab
discordant
toxicology
inhabitants
##odomain
doubt
unaltered
tuberculous
##itrate
mra
shortage
vire
hsd
kits
baumann
cbd
##arboxylic
amplify
inqu
reproduced
refers
lectins
membranous
##eme
cortices
##rows
discussing
reconstruct
absorptiometry
argen
hydroxytryptamine
##romatic
autoradiography
##anter
fascia
assemble
bursts
##etary
223
adver
dissatis
intramedullary
haematological
##phos
##orem
193
##tons
##otrypsin
020
anesthesi
sustaining
osteocalcin
opposing
##81
speeds
implicate
pigmentation
##implantation
beijing
##ithiasis
chlorine
wax
hub
##ogenin
##aba
##epines
leydig
b16
nci
returning
##took
gallst
citiz
environmentally
fusarium
cdi
vacuoles
rhoa
enterobacteriaceae
volunteer
helicase
##uated
##ocyanine
singleton
economy
maxillo
got
214
##iters
chewing
mcc
translocations
demanding
d4
drives
pest
infecting
outlet
dece
##ikre
sterilization
pathologically
nervosa
taq
antithrombotic
##adenosine
rgd
nest
sectors
##analysis
bradycardia
threefold
recanal
##odine
##atom
##alo
##itives
oxaliplatin
e7
5000
tram
additives
zik
##agens
neiss
undertook
workflow
spo
##employ
drawback
tgfbeta
hps
primord
sirt1
ovalbumin
circumferential
biocomp
##ympathetic
##tigo
diol
substituent
nonsteroidal
##gow
psychomotor
court
interobserver
criminal
fmd
neonate
fasted
lyase
##icc
heritability
secondly
urtic
odd
nearby
chag
principally
interacted
1974
kel
agglutination
bark
ameliorated
psp
proceed
##wi
vice
tremend
oropharyngeal
bold
221
condyl
cryptospor
isotherm
##aulic
homod
appropriateness
hbeag
##licates
##flu
##side
weal
intentions
##bra
##otherapies
##acrimal
308
rnf
counties
kcn
digestibility
mong
pz
nasc
wav
microparticles
levodopa
arterioles
801
reads
depths
##anthin
annular
unfolded
##erh
insecticide
##adish
ttp
rubber
preca
hscs
##mug
myristate
incon
chimp
rins
hydrolyzed
##tera
a1c
##tina
##annab
leukotriene
paracetamol
dorm
fission
tank
330
##omon
3000
caucasians
subdivided
##ubstituted
evaluable
anesthetics
og
aldehydes
036
tmj
wilc
##ifiers
quart
accidental
##ervical
ultrafil
gill
barc
sst
lengthening
045
##erus
retinoblastoma
amyotrophic
##iparous
##cc1
p2x
oxidizing
hmgb1
dti
blunted
attainment
##odynam
terminology
nts
persistently
209
bivariate
closest
hyperthyroidism
restorative
cpa
syncytial
diversion
##othing
teacher
thoughts
207
barium
reductive
imagery
##methyl
hindl
euthan
##opathological
##roscopically
##cv
baumannii
211
qtc
incomplet
##tins
metaphase
budding
xp
##like
caenorhabditis
referring
forec
panc
simian
fak
##400
##oplank
halogen
loosening
gingivalis
wells
238
##ivirus
##alcoh
215
##etom
fort
centred
dysfunctions
neurophysiological
precipitated
##whel
holistic
wise
minerals
pect
##clusive
unt
ubiquitination
autoantibody
unresectable
fishes
pyridyl
glasgow
ketone
ancestry
pegylated
psychiatr
##zomib
separating
warrants
##othyronine
myelodys
aborig
intraclass
myd
geometries
##imers
evaporation
receipt
dext
rheumatology
exertion
categorical
##kg
##oresistance
exacerbated
scars
traps
##kii
css
fitc
kines
##eximide
succe
exchanger
expenditures
mesoporous
##oxycycl
exactly
ruth
snake
exhaustion
southeast
heightened
lobectomy
humeral
pleiotropic
expresses
posttreatment
##uel
orph
numerically
overwhel
glycation
complaint
eccentric
varicella
horser
incidents
histones
formulas
thermo
pneumothorax
persists
eventual
inequalities
pine
##osylation
##lymp
fibrinolytic
voiding
cart
rounds
cycloheximide
thoracotomy
##omn
certified
ost
cyp3a4
phosphoinositide
gastrocnem
navig
abut
simulator
transdermal
swab
##d4
eosinophilia
screens
photonic
diaphragmatic
osteogenesis
adopting
reabsorption
gambling
socially
pixel
interrog
##folate
pml
ricketts
lymphadenectomy
##ubertal
antithrombin
gonadotroph
graduates
och
horseradish
ppb
carol
telemedicine
propri
031
##ticism
046
037
permeabil
apple
hepatotoxicity
reasonably
corrosion
noradrenergic
unemploy
##istin
ril
##une
opn
colloid
cholerae
##angiogenic
discoveries
##ott
##ume
pipeline
mcm
194
tubal
resolving
turkish
thread
bout
commens
flavonoid
##eri
##oprol
##ulline
##antit
blots
nsaid
spliced
##oxylin
serology
icsi
##i1
191
conductive
observing
locked
nanocrystals
dav
xa
physics
biodegradation
##amo
lingual
etching
nets
bidirectional
switzer
culturing
233
##aired
ipf
transposon
myocarditis
termini
mmse
unamb
lasers
ocul
locking
shrna
##osterol
economically
yrs
##oeba
ces
unrecognized
##endym
seronegative
qi
sephad
homeless
maternity
##aut
sephadex
masking
##yline
##torh
imidazole
amaz
switzerland
paradoxical
pheromone
arguments
##essional
followup
ortho
##formation
resembled
antimicrobials
colorimetric
##artum
##ho
probands
urgently
proxy
blank
sao
niv
##uretics
##iatricians
ultrasonographic
pepsin
038
##encephalic
inconclusive
concre
mars
advertis
189
adrenocortical
mimetic
lub
1990s
heterodimer
mush
rumin
##q11
10th
peptidase
##rett
exhal
##osystem
fluoroscopy
pectin
dcm
xylose
unambiguous
##ynucle
complexation
elastin
deals
premolar
calcified
034
operators
overlooked
handic
hardware
conduit
dihydrop
tca
##yelinating
maximally
cystatin
wilcoxon
gastrocnemius
hyperpolar
##elt
triad
##assemb
fret
appreciable
lanth
unselected
##half
##bryonic
refuge
versa
coexisting
##ochrome
eczema
##ostom
anxious
##itz
##adecan
peanut
pasteur
vulv
want
keratinocyte
aliph
hav
regenerating
competencies
xx
continuation
permissive
pick
abo
behalf
losartan
schistosomiasis
##ikrein
##oconjug
chemiluminescence
clp
epoxy
vcam
carbamazepine
rater
phages
backward
complexed
legion
pige
bronchodil
manufacturers
econ
tio
circuitry
allop
##ometrically
joining
enucle
derivation
antimal
microdialysis
dmd
##enafil
aj
tryptic
bifid
airflow
diamond
daughter
anthropogenic
entail
sleeping
orific
lesioned
##ipline
minimized
predispose
modifiable
diuretics
fle
flour
aspartic
##orel
048
##asant
stellate
uridine
##antine
comprehensively
##enet
practically
furos
basilar
prospects
##eb
deafness
recreational
urokinase
jejuni
bangl
click
##avian
risky
correcting
1200
##oreceptors
bangladesh
pbp
troch
sulfon
industries
##biased
iud
##astig
libitum
antral
lhrh
##iceal
carcinogens
344
##timulatory
thumb
extravas
gp120
##obenzene
bell
steadily
lymphadenopathy
photoelectron
dipl
##oresp
##oreflex
leis
beta3
transcriptomic
resonant
cd11b
033
laev
##acyclin
flic
aliphatic
deceased
ceft
##antigen
milieu
condensed
toe
temporomandibular
ruled
226
nct0
priori
##af1
lmp
carers
##f3
skilled
actinomyc
##iodarone
agitation
generator
palladium
modulatory
cgh
cooh
##rons
spasm
questioned
inoculum
predator
nebul
##cortisone
paths
t1d
cmax
electrop
##ults
semiquantit
cim
##6a
dizz
bever
mptp
pheochrom
clades
##ecrosis
reversibly
admix
purely
fic
##obacterial
ell
potently
550
imported
visco
clamping
unmod
descent
polyphenols
zoonotic
##vd
identifiable
spines
hypon
hydraulic
provoked
hirs
tachy
tack
gonorrh
dsc
compete
mushroom
foraging
internalized
smd
timed
lncrnas
##arabine
##omedial
gard
request
##tistic
upa
coral
##angeal
nash
histomorph
recapit
neuroscience
chose
aneurysmal
impregn
unbiased
pellets
splenocytes
htt
etoh
hardness
benzodiazepines
devoted
parasympathetic
##coprotein
hypercap
290
polyposis
##oflavin
##okine
lux
seriously
##imethyl
##agl
salient
nephrolog
##reek
aberration
vitrectomy
inhibin
nab
##igo
##oplankton
assesses
fumig
metatars
sativa
phleb
proto
landmarks
damages
cardior
a±a
meq
neisseria
##igand
probiotics
##osi
sumo
framesh
218
cheese
##hou
exosomes
antine
styles
contacted
340
##ofluor
seroconversion
encl
printed
pst
ner
risperidone
producers
proliferate
transthoracic
stations
hnf
roman
anoph
##agglutination
crosslinking
binocular
##days
pericard
leach
linkages
palmitate
intu
piece
##foot
##my
miscar
dephosphorylation
rendering
tia
olanz
vaccinia
trifluor
1950
leisure
haploid
awa
hatching
##issible
discipline
authority
latit
derivatization
##etan
fermented
mdct
incompletely
ambiguous
ligaments
glucuronide
dollars
transs
superconduc
##prednis
##adjusted
##oxidation
unsatis
cystectomy
metagen
tumorigenic
governed
file
chelating
bubble
doxycycl
oxidored
circumv
nearest
lakes
algal
##olization
demethyl
olanzapine
hypotensive
##ylaxis
##tanding
urethra
interpretations
furosemide
compute
##atide
mcg
phosphatases
ca3
metastas
##opulmonary
egcg
eut
prrs
drinks
worsened
itp
##ophor
ercp
mansoni
valine
vivax
terminally
##rodesis
prokaryotic
wu
say
##plan
exceptional
lis
detectors
incentives
marks
mace
hbc
kilob
##imidazole
specialties
midwives
mentally
4h
enum
arthrop
communicating
epididymal
##olide
vad
##ecia
electrolytes
scrap
heterosexual
methylprednis
discriminative
##ellae
235
stringent
responder
##ocere
##ohem
nitrous
047
schiff
hon
marriage
biotrans
sustainability
2n
activin
##ovsk
urological
catabolic
publishing
##trained
extrahepatic
213
ambly
##ofer
zip
langerh
1980s
stoichiometry
langerhans
std
sre
##ariae
norweg
impulsivity
illicit
mglur
exped
runs
tig
cyclization
pitfall
hither
centi
prepro
villages
fork
hydrocortisone
cia
hindered
cystein
##tert
##irr
oligosaccharide
##ticle
increments
barrett
anabolic
microch
meningiomas
phenytoin
##olstein
kenya
exceeds
subclavian
casual
##itative
iodo
039
##isco
hitherto
cholester
##una
sharply
doxycycline
seat
enterica
nitroso
##oride
draining
broken
inev
nf1
simplicity
bronchiol
ptd
1973
ppp
confid
synthesizing
tma
muss
bq
positives
##nb
streptococcal
##etization
abp
huntington
evans
##iiod
##phenyl
##osc
outputs
aneuploidy
beverages
brca2
overdose
##iformis
psc
mst
##oprim
ivc
qd
s3
##hog
##atia
wanted
optimally
whenever
isoflav
counted
##ystem
##vic
unusually
pmma
iranian
hospice
shrimp
justify
prohib
bioreactor
virion
a23
nitropr
arthroscopy
hedge
constantly
accommodate
dub
chemoattractant
muscul
##etomidine
housed
achieves
google
##tigmine
chair
colonized
gabaa
abortions
maxillofacial
neuroprotection
cannot
nitropruss
cyano
nascent
##iferous
callosum
##anting
crosses
triiod
lycop
lymphoproliferative
prod
hierarchy
injectable
concentric
uh
amiodarone
urod
methylprednisolone
communicate
v3
zona
thermally
antih
cronbach
approaching
##ophene
requested
tables
staphylococci
molecularly
dichotom
pale
stainless
##lich
npv
##ectants
classroom
turning
ruthenium
cones
dxa
powered
dibenz
##ophthalm
##tists
deployed
wel
##ieving
usp
budget
##agers
nitroprusside
prag
oncologic
contrasts
cd10
mutually
chemosens
stance
microfil
efs
associative
##roma
putamen
morphologies
performs
##users
sdf
##drs
hybridized
dynamically
glc
photochemical
diminish
regressions
emitted
astrocyte
wealth
immortalized
lrr
demyelinating
adhere
gpx
bcc
##apore
elicits
dizziness
tape
metabolically
psychotropic
subspecies
##yly
310
wherein
1966
junior
##phig
hypermethylation
##oreactive
##olaryng
locoreg
florida
##elective
blastocysts
readiness
psychiatrists
pls
apr
stains
##ivudine
distinctly
##albuminuria
destin
anaphylaxis
##olytica
noxious
ltc
stenoses
csc
cmc
##ran
formyl
nephrotoxicity
rearing
asians
##renorphine
reacts
##rofessional
certif
cleared
myb
interch
##lorinated
holstein
alongside
nowad
pakistan
##erts
ultraf
nfk
metabolizing
isr
effusions
establishes
##uximab
reservoirs
nowadays
seventh
##d3
ace2
##bank
denv
systemically
375
nil
isotropic
##ipenem
pemphig
justice
borte
##rem
##adiaz
##prop
frank
pupil
mns
cilia
assimilation
scl
withdrawn
workup
##ropic
##trig
bortezomib
haemodialysis
##ophytes
prostacyclin
cryptic
##kat
circle
hill
ssr
wires
pvp
anticonvulsant
sliding
nonad
##entation
##plate
kan
pace
##apillary
burning
##odynamically
unwanted
##aneurys
sweat
glycosides
insemination
names
draft
discern
getting
stir
grazing
mthfr
psd
rw
bandwidth
acquiring
slowed
##olem
storm
benefici
254
passages
##alline
clay
ctr
constructing
00001
artificially
##rum
polyamine
##dg
hexane
myasth
7a
coincided
fibromy
posed
octre
##ensives
tlc
parkinsonism
##ulence
serovar
alfa
##orr
bioch
diary
rubella
c7
tann
alop
##erged
##serine
chile
compressed
pds
inflation
prematurity
overcoming
unmodified
endorphin
sio2
laevis
yearly
norwegian
##at1
mef
##haem
news
temperate
genders
biomolecules
singapore
##onent
carib
pao2
##osterior
ggt
avr
aboriginal
pik
perineal
looked
##imolar
detects
zr
##gg
##ecd
##uccin
speck
synonymous
organizing
finnish
avium
##oglut
##openic
transcriptionally
litterm
degran
diphther
osmolality
bronchoscopy
##illes
investigator
proteoglycans
migrated
preferable
merely
developmentally
federation
unic
agglutinin
##ype
mastitis
##opancre
antinociceptive
fcr
contaminant
##ilyl
sos
##osse
##oons
##iciting
##feri
##293
burdens
##so4
anxiolytic
thai
persisting
meso
grouping
valley
nonsignificant
upright
colp
##olymer
hemostatic
##oxygenation
##opharmaceu
cushing
poster
disadvantage
disagre
biodistribution
encephalomyelitis
concentrates
chymotrypsin
sarcop
slopes
chlorhex
deaminase
chondrocyte
##acral
misuse
attraction
nanotube
##ila
relational
subl
opg
prevailing
atherogenic
imping
vasospasm
cbs
empathy
hyperint
universities
##arterial
##vinyl
reflective
communications
sab
decide
slaughter
alve
fibrinolysis
##car
phasic
omeprazole
confinement
bibli
incisors
tmd
##xime
##cing
slide
hedgehog
xer
qualities
##quinoline
##tering
complemented
favorably
hypophys
229
##apsular
probed
camer
##oprolol
threats
viz
dysplastic
chlorhexidine
windows
demyelination
adaptor
hydroxybut
endarter
aflatoxin
spondylitis
##zid
##oglobulin
hemi
exposing
stopping
lastly
compelling
224
adenylyl
tumoral
mastic
oligomeric
dibut
hyperplastic
dysregulated
streams
pna
trimethoprim
hypogonad
##mar
ssi
nonsense
1p
biocompatible
exchanges
attribute
dobut
cardiomyocyte
dms
tremendous
##parametric
lon
298
tata
##gtt
ipa
irin
polysomn
tuberc
radiosurgery
anastomoses
coils
311
shelf
tace
##azin
fasl
##child
##ospinal
photosystem
calorie
delineated
bps
microelectro
fuller
squared
##ocardial
magnetization
combustion
trehal
exploiting
brit
aperture
232
varices
detrus
quadrant
tonsill
##oproteins
thiored
dobutamine
dorsolateral
enhancers
fundament
contiguous
maxilla
xylan
enal
##elev
##ultural
g0
vz
raphe
##oagulation
##repres
epoxide
##oo
metabolomics
organelle
artemis
keratitis
leaching
exaggerated
nrs
delineation
nucleosome
cm3
gynecology
phonological
epitheli
esthetic
##igan
aptamer
antid
carotenoids
oro
unadjusted
042
hcm
nyha
sers
isonia
##alcoholic
##orylated
avenues
##hydryl
fischer
proceedings
##erculosis
coiled
neuraminidase
estrous
inert
imperf
profoundly
starts
fragmented
reposition
reside
irinotecan
c8
responds
relaxed
##breeding
##aner
infin
at1
valgus
went
anchoring
detrusor
eruption
generalization
vene
subgen
polluted
dissimilar
burgd
wasting
dht
043
benzoyl
ddt
geometrical
astigm
denatured
ryr
##liptin
##azem
capsul
licensed
##isen
049
quadrupole
##lyp
allyl
palatal
clath
urgency
burgdor
nominal
aedes
##omyces
##ermined
glutar
ccc
inactivating
formerly
micronutri
shad
##oves
voltammetry
huvecs
stalk
locate
greenhouse
##ypti
initiates
isozymes
entrap
biceps
myotub
cyp2d6
employs
crystallography
##eto
hexagonal
disabling
integrates
manufacturer
malate
transurethral
schistosoma
##1a2
defl
##western
##acoustic
chloroplasts
c16
flt3
phosphorylase
dioxin
floral
tunneling
##ectoris
hco3
laying
mount
##oxamine
xy
burgdorferi
debil
mz
##usate
alloys
unpredictable
vertigo
ccl4
resonances
cime
relieve
lactis
buck
##gly
217
hots
##uis
estrus
postp
interrelations
hyperpolarization
photoreceptors
ligated
connexin
cannula
##bec
sows
halo
##esthesia
acetylated
cd19
remember
pfge
##ulary
viscoelastic
##othione
lexical
dk
thinning
spectrophotometric
hay
rac1
commonest
antioxidative
innovations
rainbow
village
##ounted
inducers
duplications
convinc
neoin
phac
11c
bats
##indole
directors
pediatrics
anca
239
realize
facts
##oxides
iddm
autum
releases
economical
fits
pharmacologically
a23187
##etrically
##ellin
functionalization
cimetidine
compliant
hir
##angitis
femt
hypoxemia
longitudinally
polychlorinated
fuzz
##obiliary
ki67
kyn
exocrine
unac
ancestor
popliteal
sz
hydatid
regenerated
equilibr
congruent
420
plating
isoniazid
bacul
4000
meniscus
presump
osteoblastic
##180
unresolved
pgp
campaigns
mbl
3b
##okinin
lysate
##fast
membered
##5b
indeterm
hotsp
cq
fetoprotein
##otypical
ugt
isothi
nonsmok
##vin
concludes
games
coincident
cch
childbirth
tamp
t0
yb
osteochond
accelerating
eliciting
##lative
##mics
aggressiveness
sant
##azoline
immigrant
oligodendrocytes
myelodysplastic
listening
intracereb
fviii
unresponsive
actuarial
hematopoiesis
##cription
glucosamine
tnbc
##iphenyl
stimulant
##ysm
hindlimb
candidiasis
cages
pectoris
aphasia
pco2
##diagnosis
wir
inflow
your
kallikrein
progressing
##tiazem
##avers
##ronic
pigments
citrus
immobil
mantle
##cysteine
hemispheric
uncoupling
##oposterior
neurochemical
melanocytes
aca
clip
##entgen
fried
washington
##l3
##orthy
iner
adenoviral
equivalence
instantaneous
upward
phosphates
oncologists
17a
panels
mdr1
##oco
machines
pieces
achilles
undiagnosed
scaled
advocated
alkaloid
##angiect
hospitalisation
ryan
cholestasis
underscore
brings
hemispheres
walled
hydroxyvitamin
astigmatism
enalapril
rps
exhaus
pond
truly
lvh
##body
bland
retinoid
##ometers
website
aseptic
subtotal
##eping
spending
cardio
berg
tort
responsibilities
optically
supplies
isomerase
275
gj
nadp
telomeric
##board
##ospermia
##etus
rainfall
abduction
obstacle
asynchron
athle
modifier
041
saa
basophil
glycaemic
hypocal
pruritus
locoregional
stimulator
preparedness
azithromycin
distension
myoglobin
fossil
##equencing
hydroxymethyl
antich
bacteriological
##otomies
buprenorphine
hypoglycemic
accumulates
photons
analyzes
congestion
sulfonyl
protonated
wisc
concrete
##omyelin
crust
utilisation
##adol
microglobulin
curing
650
##aea
pa€s
alcoholics
refraction
thyrotropin
isothermal
segmented
##ender
##h4
cx43
buffalo
enantiomer
asphyx
instrumented
police
tee
alphab
enj
annulus
tailed
##insically
##activator
recanalization
mch
##ucine
cbp
diphosph
intratumoral
sinusitis
phytochemical
diltiazem
spasticity
##map
visiting
johns
tyrosinase
##havi
purpura
localisation
irrelev
cryopreserved
synch
pps
msa
dystrophin
n3
##mb
graphical
compromising
comet
pursuit
amil
clad
##trum
replicative
cochlea
##ildenafil
familiarity
##ophyte
argument
pragmatic
##rotal
unsatisfactory
favoring
contracture
unlabeled
occlusions
flatten
denaturing
365
demethylation
glutaraldehyde
agn
##rosthetic
##espiratory
s100a
tz
pacap
subma
attempting
##anging
sonic
endocytic
nh3
##opterin
wildlife
iaa
##osteal
spirometry
##imentary
preced
shigella
fasci
nef
380
sod1
conferring
carboxylase
2alpha
5s
##lab
qaly
pbc
tps
stigm
heterozygotes
##ogastric
##urge
chow
hydroxyd
phenotypically
calcane
pollutant
galpha
bridged
##king
tdp
streptomycin
propos
exo
aband
apd
explanatory
anchorage
extravasation
informatics
myocl
7th
homing
cardiorespiratory
ncr
nitrog
##lock
##admin
tracers
flame
mlc
##phone
seeding
nystag
##ithin
bee
hypercalc
immunology
cfa
quartz
##7a
homogenate
##idines
neuropeptides
##itical
momentum
carotenoid
##osseous
##ingual
outstanding
##accum
dissipation
argues
avers
cooking
meningioma
turns
distilled
n2o
herbs
vagina
tolerate
keyword
tracheostomy
anonymous
roentgen
juxt
contributors
lrp
microinjection
pdac
##lc
hematoxylin
##iry
remediation
##ynyl
matches
sildenafil
quadratic
intracerebrov
dac
phthalate
alopecia
fuzzy
carcinoid
unsp
##osylated
h2s
##ohep
thorax
##arcomas
shh
insecticides
228
thioredoxin
rtms
dict
erbb2
autophagic
cau
carbonic
##n3
##aggreg
uva
colomb
ptb
azath
strictures
genotoxicity
interphase
peep
##inoids
millions
rebound
##itizing
##omorphine
wish
lacrimal
jurkat
fibromyalgia
##bear
protozo
repolarization
intraluminal
viremia
cryo
asympt
##sd
manager
hardly
##translational
##aro
photop
emulsions
antenna
aegypti
intracerebroventricular
##umber
adapting
lamivudine
crystallin
ahi
micelle
divisions
porphyr
pva
icg
observable
postd
sulfhydryl
poc
iap
fap
orches
lipolysis
dilute
hun
##ostosis
lncap
nonresp
s1p
anopheles
245
rhodamine
vacuolar
octreotide
rls
370
contradictory
a€s0
loose
herm
corneas
h5n1
pyrophosphate
##biotic
epidermidis
interferes
480
##yer
humerus
door
appreciated
gay
##anoic
infarcts
cargo
##oting
mend
biotechnology
corrections
hydroxych
amiloride
yers
exponentially
dihydroxyvitamin
azathiop
glycated
logic
telomeres
autistic
##y1
undesirable
##bv
brand
victor
habitual
submandibular
counteract
rectif
tertile
congress
leucocyte
##illed
sulfated
##lycerid
egr
classifying
antidiab
heterocyclic
##nour
myofibr
zn2
dialysate
carrag
certainty
acidity
cb1
irrelevant
adn
continence
cem
ht1a
clarithromycin
transparency
discriminated
##lethal
##inflammation
semiquantitative
prehospital
##encephalon
heritable
##ellulose
##aks
immunod
simpler
dsrna
spous
##stalk
##ollagen
quoti
ict
##amido
pvr
cyanobacteria
anaesthetized
batteries
aspergill
rx
219
argon
##2r
unil
044
mmt
modal
entrapment
micellar
proband
transesophageal
pgc
inception
orex
popularity
##ern
##aced
pvn
polish
femtosecond
antiphosph
connect
##othec
##ismus
superimposed
##onecrosis
##actyl
retrovirus
fluency
##db
orifice
palmitoyl
lyme
hydrothermal
ingredient
manipulate
hyperc
##electronic
golden
town
manure
theme
##orf
citizens
##h2o
##wood
pant
radiologist
pedigree
jew
implicating
euc
hypoglycaemia
heel
therapeutically
p75
thyroiditis
##anone
##116
vitr
extubation
wavelet
mx
aluminium
bronchiolitis
monod
##romegal
estrogenic
potentiate
neurovascular
sjogr
knowing
arabia
azathioprine
dnp
030
electromyography
faeces
endodontic
##rotected
cu2
eo
hemagglutinin
carrageen
hmp
freund
aas
migrants
ricin
autumn
membership
unstimulated
permitting
lncrna
bent
propria
extraord
##the
russian
sphingomyelin
lpr
ay
reca
##ispers
unaccept
localised
##trex
endosomal
nonhuman
naphthalene
##romed
traces
##omening
reinforcing
##ocations
ripening
##reen
nystagmus
##oidy
ops
collim
computationally
nicu
globular
player
breakpoints
sjogren
polyt
framing
anteroposterior
agend
maneuver
weighting
carolina
indeterminate
##fil
wd
fts
kinet
obscure
debated
pumping
predefined
thematic
snow
pdc
gavage
biotransformation
sentence
cd56
thermost
gefitinib
cba
nanocomposite
niddm
##tite
##othermal
6th
##odyst
microbe
incompatible
##isphosphate
party
adjuv
implied
behave
rejected
241
tcs
polyvinyl
##ulsification
presumptive
embolic
antiinflammatory
##937
wrong
##amoeba
##ocalization
ebs
##rice
privacy
incisor
eur
rsd
##immune
##ugr
ideally
zw
opa
fumigatus
commiss
##00000000
##osh
##jd
sensorineural
bleaching
buds
hemic
234
cholangitis
##acyt
anf
predators
sax
durability
transmural
intrinsically
##arius
mission
azide
unbound
intergenic
parturition
repairs
willi
sider
vegfr
crass
rises
##ovi
##reatment
dsb
vascularization
micromolar
##ometabolic
crosstalk
weighed
nbs
##etitive
deoxyribonucle
imipenem
downward
modifies
densit
20th
fimbr
odn
acetylgluc
submaximal
##burgh
nfkappab
transvers
unload
affordable
##opram
antitr
neurobiological
tubul
thrombi
##odynia
approx
##iclo
sulfoxide
ductus
butanol
hypoc
replicating
directing
replacements
gob
auxiliary
##isk
bisphosphate
##alog
sulcus
uganda
gynecological
extram
minnes
mechanistically
endarterectomy
nitroglycer
periplas
solvation
sexuality
p50
congeners
rage
hypok
orfs
##kl
##osable
##italopram
electrosp
merits
applies
tanz
ish
ed50
prepubertal
guest
adenomatous
transients
pitfalls
evacuation
solutes
nw
accommodation
printing
granulation
pgs
nnos
influential
ptca
##gp
humor
##oronary
cryptosporidium
taxonomy
##azide
homogenous
##inesis
electromyographic
cylinder
bmc
necrops
0003
ifngamma
##orptive
geographically
hispan
##cel
illumina
mate
##avicular
pmns
ambig
nonsmokers
achievable
deteriorated
qa
acromegal
endosomes
cetuximab
multilayer
realization
##children
restrict
##osclerosis
immunosuppress
topographic
f3
reapp
club
balancing
##ysteroid
cholecystokinin
cscs
##ennial
facilitators
logical
tut
caveolin
bpm
##uronium
indexed
amphiphilic
vascularized
spss
intensified
oxidoreductase
subdural
hypertrig
adenosyl
immunoassays
##echanical
underpinning
ependym
minnesota
regi
mang
refine
##adelta
dosed
##odone
albuminuria
chromophore
curved
amh
##bos
complained
##operfusion
harms
exhaled
k2
miniature
phyto
predation
ppt
##09
brucella
##bw
citric
crush
vow
##oning
zh
phosphatidylserine
extracting
##hom
##unts
##antes
bcl2
##agenic
certification
photod
concerted
monolith
##omycosis
butter
outperform
##eor
##1c
apomorphine
bioge
meniscal
##izability
unco
hek293
biv
insec
extant
ebola
prazosin
antimalarial
advised
##ffer
nitrophenyl
accomplish
reinforce
##itans
otolaryng
ankylosing
anaerob
seemingly
stat1
identities
pns
cmt
polyaden
celecoxib
kiss
diagram
trus
ip3
embedding
defibrillator
palpable
##allium
callus
deeply
##endothelial
columbia
obt
fra
anatomically
duplicated
uniformity
rhodopsin
##iet
flare
esophagitis
caspases
ffp
mbc
dcis
myoblasts
capacitance
b4
ssa
dsdna
crowns
##ca1
bdi
##ecium
angio
pld
reef
immunologically
##amyl
separations
trpv1
relied
##126
borrel
leucocytes
vzv
irritable
cannulation
quail
claimed
##iso
prick
ultrafiltration
sclerosing
kre
pathophysiologic
ploidy
blasts
##okines
e4
tpo
kaposi
236
rio
email
248
crime
granulomas
mpp
cd133
cdkn
phantoms
huvec
hemophilia
urs
nanocomposites
sid
spt
inequality
roi
ikk
gus
nucleolar
incap
reliance
dissatisfaction
interim
compass
vo2max
corticotropin
urticaria
marm
hypertriglycerid
biotic
quadruplex
pleu
traced
listeners
triiodothyronine
wi
dipyrid
hydrolytic
##baric
hematuria
duck
##ultured
##orespons
##iclovir
##iliation
homosexual
borders
radioiod
mcd
forth
query
fragility
##afted
##otin
rs10
isoenzyme
vitell
ethi
scarc
ags
argentina
penal
tpp
blend
15n
cardiogenic
guarantee
##ighter
myelopathy
manipulating
ici
intraves
##balanced
viewpoint
dexmed
meter
##odin
lett
mine
sati
mta
##olimus
pentobarbital
##ocortex
##tone
##odeoxyglucose
optics
supervis
##being
bifunctional
oldest
landmark
ryanodine
caf
##activated
assignments
mitigation
antidiabetic
##ologr
money
nephron
symbiotic
balf
enthalpy
lfa
##idian
myocyte
nadir
##oda
trying
lysophosph
##dy
postinf
deuterium
polymerases
habitu
polyg
##nourished
ecules
nord
isomerization
hydrated
131i
waveguide
##erson
homozygotes
##lessness
shortest
dentition
##ells
degranulation
dexmedetomidine
##esters
wellbeing
fibril
attenuating
##biosis
fluorine
##adap
pellet
oligomerization
heterochromatin
##othi
retire
chyl
invading
postulate
accreditation
##burn
##abp
saturable
##opathogenic
##esin
taught
##apto
##azid
uranium
##cephaly
globe
rer
dione
perone
affairs
inefficient
##ylv
##apical
##ovulatory
##erule
chronological
anode
aunps
thanks
log10
ncc
##missions
##ozoites
riboflavin
contrasted
##regnant
cas9
waveforms
entrance
bmscs
photoin
baroreflex
convex
##fu
chb
##eryth
##rogenesis
hatch
mesoderm
cholinesterase
nim
##tress
monocytic
325
intraoperatively
grounds
##porter
caribbean
stressor
anesthesiologists
condyle
##atids
cob
progresses
shoots
chagas
##itil
tetramethyl
hyperbaric
microscopically
txa
grape
##erme
contracted
fibrillary
leukemias
rotations
appeal
externally
uracil
solubilization
##tlen
poliovirus
tst
naming
##eliness
disrupts
tetramer
fluorodeoxyglucose
sentences
emergencies
scopus
roux
pleomorphic
hcs
1972
bulky
default
issued
speakers
##ethane
innerv
##ternal
##centr
ringer
degenerate
##olinergic
apache
##ipher
edent
negoti
hispanics
conspic
indones
subdiv
cholesteryl
##esartan
graphite
puf
biotinylated
latino
iugr
deae
beating
paramount
immunofluorescent
227
thf
nonalcoholic
##abdominal
accelerates
biochemically
##otency
stump
roch
bottlen
nem
##aparin
##ytoplasmic
thiamine
rbp
sympos
appreciation
convey
syntheses
##urized
amend
243
eliminates
api
midgut
markets
##epi
macaque
clathrin
telangiect
ina
metallothione
digest
hyponatre
pach
enzymatically
hypothermic
##506
transfused
arthrodesis
inferences
ceftr
##ureter
abbre
iiib
glur
athletic
peru
##tigens
seldom
flip
mn2
aerial
metacarp
electrochem
ignored
252
cdh
multicellular
##onol
beneficiaries
noticeable
##agal
##3t3
unavail
lactone
cole
microsurgical
victimization
novelty
ultrac
glucone
paulo
merit
##ecies
antiphospholipid
##isy
##oduod
malaysia
1s
mites
rarity
cen
contraindications
##bearing
nomen
coordinating
defensive
hba
alleviated
gase
overproduction
trehalose
reconc
ceftriax
gor
parat
seedling
strugg
##lotinib
##bh
##antigens
phylogenetically
hydroxyethyl
cholangiocarcinoma
ensures
nanofibers
diphtheria
##iaa
undetermined
readmissions
jh
sphingosine
morphometry
pmp
beneath
stn
abbrevi
##arche
u937
##ancerous
glucoside
aii
##igenin
cytolytic
diacylglycerol
##ifferentiation
advancements
isotonic
scrutin
caregiving
lentiviral
##ofloxacin
tenderness
##annel
242
radon
meningococcal
breakage
liability
##agliptin
everolimus
syringe
drastic
##orphism
shang
cach
genbank
chemoradiation
urodynamic
251
cathode
oscillator
dichloro
disinf
bras
c1q
myelogenous
##enne
czech
certainly
ethiopia
spiking
##344
bmj
pear
plasmonic
##orient
##access
hyaluronan
milder
##occlusion
ceftriaxone
biob
overwhelming
tsa
coexpression
conservatively
interspecific
discontinuous
##nit
vagus
involunt
##ucting
barrel
lind
avoids
vsmc
cultivar
mercapt
negativity
seeks
impr
pseudoaneurys
fecund
##americ
matr
pheochromocytoma
multifac
boots
dates
isth
erlotinib
hernias
##oporphyrin
##tilb
sedative
vasoconstrictor
wireless
aerosols
archaea
##tices
equivocal
gig
coadmin
mindfulness
##kc
ira
neuromod
##urface
##rey
colectomy
asymptotic
atria
imperfect
manufactured
##oton
##gesterone
taqman
mmf
kyoto
chik
claud
amni
nomencl
##owed
calculi
##omol
shuttle
borrelia
##imidine
pastor
asthmatics
facets
ictal
byst
##trid
ch4
alkylating
1970s
tos
qtls
jia
multiplicity
styrene
##yled
compiled
synchro
gm1
##n4
conclusive
isoenzymes
concussion
destroyed
recruiting
potencies
irrig
scotland
microflora
categorization
neurofil
replicates
mailed
255
pread
dsp
1ra
arctic
resins
preload
2m
259
pgi2
cd38
scleroderma
diamin
265
perovsk
defenses
nanoc
debilitating
font
antarc
farnes
tki
gss
neurosurgery
ui
040
##inately
helminth
keratocon
visibility
rooms
##nu
quartiles
2p
nonrandom
sink
instructed
hib
266
genu
6m
##alkyl
lmwh
enth
urology
##ensory
lactofer
frameshift
endocardial
##oide
thicknesses
yersinia
ihd
mma
sock
##aval
orphan
microdiss
##elong
offs
cst
##ophytic
titre
laminar
##thio
postgraduate
##ofovir
taz
adjuvants
transr
multifaceted
modifiers
adamts
shel
patterned
whey
igh
##men
concert
mutagenicity
gaseous
peptidoglycan
calcifications
sorted
gist
##rophylaxis
##a3
story
##cedural
hgh
proficiency
adsorbent
##zin
fractal
wheezing
##alic
pseudop
acclimation
tdcs
##ostal
hypnotic
biosensors
##itrite
sgc
##hard
counsel
##ellites
decel
dyskinesia
alkylation
nmdar
transvaginal
breakpoint
lithotr
##atran
##welling
zirconia
apa
conventionally
holo
##omel
4b
sps
cyp1a1
disparate
##elian
colored
ccd
underlies
bend
nanog
penis
senile
##lers
interconnected
exploitation
ned
polyneu
##orbable
weaknesses
##exy
bioinformatic
delaying
cycload
renders
infestation
bca
##olyticus
##globulin
dihedral
urease
benzoate
isozyme
precautions
##itidine
tcc
confluent
gulf
restores
territories
retains
snf
autograft
##olipin
paraventricular
##ematous
emr
hematology
pdms
##cast
##rosterone
acetaldehyde
strab
ghana
neuropathological
hapt
##menting
##anesulf
universally
##ollen
pione
editorial
partnerships
astr
corners
synchrotron
fulm
tfs
explant
gdnf
youths
inflammasome
315
##trexone
##critical
##oeae
rever
epithelioid
##extraction
gsk3
esp
##aracter
cnvs
northeast
nile
dosimetric
practiced
actinomycin
svm
posttranslational
anteced
##standing
intervening
autogenous
phal
amalg
isoc
fms
pharmacodynamics
preoptic
profit
drawbacks
perfusate
##eic
##meter
##osynthesis
multitude
microalbuminuria
ctcs
eicos
chances
cognitively
suckling
depolarizing
initiator
##position
a4
neocortex
##achus
##ampl
zeol
ogtt
##hexa
cine
curricula
calm
lacun
bees
syndromic
trichloro
blockage
breakfast
triterp
erbeta
singular
slip
silenced
##eno
##atography
##i²
sms
##phosphatidyl
unravel
249
frustr
verm
##individual
hypercalcemia
##famide
periodically
mdma
perforated
##akia
sirnas
##endazole
transcutaneous
antiangiogenic
prb
srp
telev
save
##onins
##acrine
enjoy
amazon
cadavers
##cnts
hamstr
##electroly
nitroglycerin
ceftazid
vign
244
advocate
perturbed
notew
wt1
##tiveness
##etium
fron
stays
bacteroides
##omethane
agnps
multiplication
myelinated
lan
cour
b3lyp
penetrate
##oembryonic
sri
amoe
invertebrates
metoprolol
htert
kup
craving
acknowledged
infra
scfv
##osts
restricting
cci
confron
##opoietin
thoracoscopic
aspergillosis
rolling
fbs
rivers
subn
237
##ocratic
calv
bisphosphonates
valued
##ifolia
##ystitis
epilept
##iors
sirolimus
bottle
cape
cbl
aversive
anhydrase
brucei
##rolateral
endos
ginseng
adventi
##ionyl
usability
medul
grounded
##har
pgr
pdi
##odystrophy
##agle
enantioselective
liz
masson
consume
booster
##ostigmine
unprotected
asparagine
nanomolar
##l4
retirement
gonorrhoeae
##jiang
cler
ferrous
fenes
rpl
mainst
##renic
flush
246
maxima
##behavi
promyel
adrenalectomy
##outs
reactors
thermophilic
lord
dentine
ats
bulls
ceftazidime
##ofr
vsmcs
specify
##sm
granted
epcs
clarity
astrocytic
##aras
fibrillar
elaborate
retrotransp
fulminant
noteworthy
so2
anoxic
plp
oi
extensions
orthostatic
ql
rug
miscarriage
clind
fcs
fixing
symbion
russia
duplicate
cords
##factors
fluidity
subling
myd88
interindividual
##rian
nq
bival
disassemb
##incial
##ysts
myasthenia
##reshold
hyperoxia
condylar
##architect
##opically
tall
acceptors
serially
nonph
synech
magnitudes
suspect
calving
exf
phosphatidylethanolamine
scleral
formulate
microorganism
azt
##atial
cholecystitis
tier
carcinoembryonic
##fi
##planned
emer
tga
carboxymethyl
vg
chaperones
##reach
mph
1971
jointly
harbored
runoff
arte
dash
nfat
recombin
fingerprint
8a
##onsin
##opharynx
offenders
reassess
nuc
pend
ophthalmology
gk
mvd
i³
segregated
##hb
##alasin
demonstrable
##fractionated
##ubiqu
fractured
##acholine
##riers
dwarf
alc
##rotoxin
pnp
##i±
hac
gamet
cancellous
riton
completeness
##junctiv
suite
ille
hallucinations
ttr
mesenchym
overlying
253
oval
partum
ocs
htr
ritonavir
dce
genic
transluminal
floating
encompasses
narcotic
clindamycin
acellular
cardiople
massage
bart
baculovirus
lifelong
relying
legionella
unheal
##ophyt
architectures
photoluminescence
diffusivity
pav
tones
pwv
incar
absc
ddp
mismatched
##anolic
internally
enox
herbicide
f4
genit
tracheo
oint
interprofessional
schoolchildren
chat
accessed
fanc
manufacture
flavin
intradermal
forel
##urrent
nlrp
##ographies
247
cnts
##opolymer
##afluor
hyperphosph
inductive
projecting
5alpha
amlodipine
##amethoxazole
lav
stomatal
##epsia
governments
##romazine
accessing
##romal
protonation
##rowing
alpha4
singly
lubric
isole
accessions
18s
##itizer
ionized
faith
ipscs
paralog
littermates
acrylamide
##uanosine
i¼g
cardiometabolic
aquap
coul
##entilation
fourfold
tricyclic
hypersensitive
convales
governance
retinitis
anthracene
steers
racemic
wisconsin
lymphoblast
cardioprotective
dyspepsia
endings
allied
hyponatremia
shunting
tampon
##engers
harr
preparative
radioligand
ji
##oglitazone
lyophil
peroxisomal
vertebra
wnv
##duced
precipitate
prevalences
excurs
e2f
##chond
outreach
capping
equity
odc
##osmotic
##tida
msv
##iptyline
bringing
muc1
catalytically
controller
seropositivity
tie
##fv
glucuronidase
buffers
##tg
docosa
dystrophic
broadening
cld
##urities
##oceptive
resectable
characterise
ramp
incisions
swollen
appointment
2500
adhered
sublethal
##imod
mrp
keywords
##inum
decipher
ther
antitrypsin
capturing
pcm
heavier
##eight
bloom
glue
deterministic
deregulation
glenoid
blu
##butamol
dpph
##ongr
emin
wp
##ospatial
taxol
##q13
torr
fingerprinting
posttrans
sunitinib
displacements
rectang
errone
vigilance
nanorods
aed
inductively
##ulans
trapez
tbs
##muir
valproate
pioglitazone
terp
spermine
stear
ambul
reentr
##coming
itrac
268
nomenclature
kinin
macron
glut4
demineral
kainate
piezo
##aginous
icus
covariate
impingement
sunlight
alu
258
deactivation
requests
confidential
cinnam
langmuir
synchrony
customized
salbutamol
symposium
imipramine
guang
lepid
thawed
##adecyl
cytostatic
cohen
plasmacyt
dipolar
dehis
inclusive
osteonecrosis
cpc
##week
pressing
aminoglycoside
ohda
263
supras
##etries
shocks
gastrop
pparalpha
alignments
thiols
bcva
adal
stomatitis
quotient
sce
sirt
procollagen
hpv16
##pora
amik
##inavir
440
cort
survivorship
inactivity
army
comfortable
##roke
pneumonitis
arid
##anide
##osaminidase
cecal
osas
myopic
tanzania
vinc
insults
tbars
inbreeding
specialization
##oprostol
clinico
qsar
endop
proteas
eoc
tir
earthqu
ipr
xps
##omponent
lepr
soccer
vero
##ocereb
mediastinum
shielding
peroxyn
virologic
itraconazole
monitors
involuntary
##tored
##uer
257
lc3
misoprostol
305
##onders
lockdown
advisory
##oxine
bioassays
uncharacter
nucleophilic
agenda
##nn
asymmetrical
anticipate
##vhd
innervated
dilemma
##ogloss
broadband
estimations
sh2
##osities
parall
pediatricians
lactoferrin
recalc
formats
##itably
originates
ced
allergies
##obutyl
ghrh
appendix
socs
hcy
reflections
phagocytes
aforem
##arrhythm
aforementioned
exercised
triangular
staffing
haemorrhagic
##atalyst
street
epididymis
modelled
273
trisphosphate
biomaterial
weaned
##adate
dentures
exceptions
##onated
advocacy
wo
##oping
##utations
postex
unevent
pdl
hologr
recovering
thrombectomy
neuroinflammation
##uters
ketones
epilepticus
g6pd
##arbox
baclofen
humanized
questionable
dentist
operates
ancillary
rantes
nanoshe
spaced
##ortus
##formans
attrition
##lymph
##ocholine
temporarily
ganglioside
thalidomide
rrs
isotype
methacholine
verb
ontogeny
discourse
tetrod
##cessing
##ohyd
nonsurgical
fluctuating
chemoprev
truncation
greek
nipple
emerges
facs
##k3
hallmarks
nonsyn
saccades
meteor
immersed
villous
ribonuclease
##uronal
##orescence
synovi
naltrexone
lq
transducers
amikacin
shanghai
chic
ctd
infrequently
splanch
amid
tavi
intracytoplasmic
sarcopenia
##worth
investigational
shortcom
assault
##anercept
rgs
10a
cpe
##iden
radix
shortcomings
##erea
interdep
knot
bootstr
h9
##acological
decont
tracked
##ycholic
oligodeox
pthrp
ild
extracranial
##me3
cofactors
mania
hilar
rts
##arietal
##feld
heights
etanercept
anthracycline
hil
nachr
##ectant
adrenocortic
macrog
mtc
adnex
underweight
researches
unexplored
dj
sis
278
tj
antiapoptotic
cephalosporins
dmf
hexa
coagulopathy
transformants
densely
deciding
startle
internationally
papilloma
##ht
abundances
discriminatory
##etermined
aac
belt
301
kupffer
phr
##onus
manic
288
r0
transferring
##ofluorescence
exudate
prrsv
astrocytoma
metamorph
pork
295
petrole
##amole
##ibenz
glasses
cmp
##lm
oesophagus
stokes
hourly
pik3
ptv
technetium
##opurine
substitutes
ssdna
papilla
nms
##ethylated
dqb1
mustard
##space
##ocortin
##bet
obligate
oxa
disks
##dam
inaccurate
extrapolation
groin
ventrolateral
decis
psycin
##che
tetrodotoxin
##atri
coales
apps
claudin
##omplex
senescent
languages
physico
gonadotrophin
television
mucositis
medullob
erythropoiesis
eigen
capec
psycinfo
mercapto
##atechin
##interp
redundancy
##uese
adenoid
tss
285
oligodendrocyte
##kins
mayo
pyridin
pallid
convincing
landf
electroporation
ipc
##quat
ruminal
characterizes
##ompar
##onscious
quiet
hscr
sinensis
parag
laterally
portuguese
overgrowth
queens
##oba
reversing
wg
revis
goiter
cystitis
chimeras
controllable
##opeptides
spider
salicylic
speckle
rpa
oncoprotein
converts
polyneuropathy
brassica
profess
empiric
gravis
##rew
guard
soldi
promptly
antineoplastic
maltreatment
michigan
acetylcysteine
tethered
##edics
myotubes
rapd
267
centromere
neurobehavi
c9
comt
dad
##avidin
##tiform
repos
fura
incarcer
captive
tars
capecitabine
erythro
causality
castrated
##5y
tympanic
petroleum
darkness
runners
organisations
cili
hin
##rogenital
jack
hydroxyproline
enterotoxin
##enom
vasodilatation
formate
rheological
unfavour
alliance
lipof
moderated
cycloaddition
##capes
reclass
afterwards
302
##apheresis
beverage
docosahexa
##retinal
antihist
lift
citations
gpcrs
aeds
haemophilia
triacylglycerol
##ohum
neoformans
kev
repeating
licensing
pbr
tell
denervated
proteinases
##reported
##orrhizal
##ryl
shunts
vitil
lowers
mdck
hym
##ituric
spheroids
depicted
colostr
304
dipyridamole
linol
humic
levofloxacin
##blas
disruptive
michaelis
empowerment
absorbing
dul
yang
##igel
strengthened
peroxynitrite
rearranged
vocab
wheelch
##iones
##ipsy
brs
333
fight
##encl
greece
chlorinated
thyroglobulin
mvc
arv
clonogenic
viscous
casting
carrageenan
magnification
4e
##05
bak
bottleneck
unhealthy
cemented
##oneu
anticholinergic
intracoronary
polyureth
rit
##onella
speculated
wal
##olon
##enolol
carin
##izo
colliculus
secretase
cervic
crab
262
ntr
rds
aic
neuroanat
neurotoxin
ene
steat
stands
sublingual
translocated
pef
triphosph
cpm
chlorophenyl
modestly
thicker
neuroleptic
smith
ppe
fabp
ipt
##hydroxy
oocysts
equator
hairy
##adaptive
retail
##affinity
lobular
intragastric
##hae
##anteric
tuberculin
thallium
misle
##omac
xeno
sight
adalimumab
inulin
##cryst
proposals
shield
intentional
conceived
circums
sip
stall
preimplantation
synovitis
colostrum
lia
wakefulness
olt
recommends
japonica
b5
capd
isolating
##obox
trep
ethoxy
canis
administrators
rifampin
yt
##licted
contag
heterotopic
harness
contracting
hypercapnia
##econds
inserts
fecundity
enolase
immunoreg
exhaustive
nepal
##urinol
luminance
##mol
esophagectomy
toxoplasmosis
nanotechn
lacc
invertebrate
##intervention
cdc42
##asure
submic
splanchnic
##f5
relieved
exceptionally
awak
edible
stripping
parkinsonian
hepc
dating
incentive
##rogesterone
anterogr
ema
cd1
pid
##edoch
##otap
##tiana
##atp
aminopeptidase
polyelectroly
hca
276
varus
recurred
##h3
##etting
revert
unipolar
410
atopy
polyploid
##ortin
stick
dpi
marketed
##enedione
allodynia
polyamines
sns
nucleocaps
deprot
jas
##eav
##enclamide
threatened
##astigotes
##enoids
nonselective
stabilizes
doi
laid
founder
renewed
##aters
##icus
patella
snails
tails
##omimetic
forage
periventricular
##itim
impurities
igt
losing
pteryg
0004
bimodal
unplanned
agen
researcher
rhb
460
perpetr
##ermectin
farming
embryonal
##icum
mainstay
glib
hypothyroid
football
chelation
lifting
dehiscence
bpy
chemopreventive
##wl
capita
sectioned
urogenital
photolysis
methylphen
vacuole
broilers
bystander
cereus
decidual
##ocentesis
bost
complicating
nevi
dide
##ulitis
##ourinary
stoichiometric
flavor
arteritis
diesel
infinite
tetrazolium
c12
hbo
vp1
adt
cardiover
##elmin
mold
atenolol
proceeded
lymphangi
convulsions
belgium
esd
bears
##4b
##vo
apgar
tung
myr
##odeoxy
quantitated
isothiocyanate
pyre
chen
##orbed
colistin
hydron
272
##othermic
ctni
columnar
bass
epilep
fpg
evoke
minimization
ovip
##adin
posterolateral
##horm
divide
hart
opc
ond
misdiagnosed
opto
vitiligo
##xc
rrt
externalizing
humid
reversibility
coeliac
posttransplant
isogenic
delib
phenomenological
accord
tkis
propagated
##ums
remif
loud
fertilized
chromatid
nsc
bodily
nonpregnant
jn
smr
mesenchyme
pectoral
catastrophic
nitrobenz
cbz
merist
budes
protozoan
##anoid
##ofibrate
##2s
mtd
##umenting
buried
rye
intravesical
cvs
leaks
unfavourable
abstraction
officers
southeastern
continent
genitourinary
microvessel
bism
incongr
moves
steroidogenic
rsa
contours
horizon
multilocus
budesonide
vhl
subreg
clavul
gangr
isi
proactive
focuss
marsh
reminis
osmolar
insula
##lear
##ospora
##fused
endeav
ctp
hemorrhages
dsbs
ethylenedi
transporting
arthro
metallothionein
collisions
fontan
kw
edentulous
##androsterone
macrop
taxon
incidentally
charco
athlete
urch
boc
mgmt
urate
pink
chelator
corroborated
shoulders
alumina
salicylate
sorbitol
achr
validating
microvessels
hts
soma
##riol
##odilution
hydroxybutyrate
##uloplasty
##ilia
##rolithiasis
recirc
312
##anoate
cyp2c19
millis
11beta
thawing
##operable
epc
knife
chorio
mof
pga
taf
##nr
temperament
keratoplasty
lewy
lil
##9a
emboli
gat
employee
tunis
##arins
corrective
##low
signed
hydroxysteroid
formic
desaturation
documenting
nog
retinas
gtpases
##energe
coculture
lk
cereal
inquiry
lymphedema
##azolin
virtue
sprouting
synergism
rcbf
tamponade
matured
subclasses
cautious
##ophosphorylation
##ovaginal
trains
dyslex
##opyranosyl
remifentanil
##cls
pretest
erosive
hydroxyphenyl
hemagglutination
thromboplas
professions
macrolide
rnfl
monovalent
fcgamm
##enzym
boston
vertically
pharmacies
##iment
assumes
ownership
nymph
audio
alpha7
videos
##gener
vulvar
buffering
nucleosides
lar
arcuate
flagellar
chips
fundamentally
exogenously
villi
permanently
tympan
cdk2
261
##nl
##utz
##q21
aec
fellow
amalgam
##axanthin
mobilized
##oblastomas
condoms
##opyridine
grows
suvmax
fissure
transis
ferro
mpi
##isis
commensal
spectrophotometry
fe3o4
localizes
smcs
##etector
appointments
##osinus
archaeal
##uren
diis
##nts
depot
obstructed
t1dm
sox2
fabricate
ultrafast
##ectasis
phc
316
tramadol
stasis
elaborated
##ifos
tlrs
flocc
avidity
mrc
ivs
favors
crowding
egta
##legic
scaph
acycl
biomechanics
##gm
scopol
##jejun
##osarcomas
520
ribonucleic
psii
hyperrespons
cardioverter
glycosaminoglycans
##agog
##adecanoyl
asphyxia
hch
##domains
docosahexaenoic
goblet
altman
paris
##rid
nanowire
switches
3s
odontogenic
cd31
desulf
gabap
##olium
##holm
activations
lvad
indians
ethers
enucleation
tailor
##ybden
cytored
maltose
reser
oxygenated
tpn
myometrial
aphid
##ouns
microliters
pnd
mounting
plt
aap
blm
immunosuppressed
histochemistry
conserving
prices
traf
unaw
smoker
histopathologically
charcoal
consultant
glibenclamide
neurofibromatosis
metabotropic
pvc
rca
adopts
##olumbar
ewing
bicycle
necropsy
enterococci
##irm
recession
electrophysiologic
powders
juveniles
gonadotrop
launched
##aya
capped
##cb
affords
spouses
sting
##itism
quebec
##etast
provocation
sy5y
pge1
glycoside
electrophysiology
spm
##yramidal
paco2
cystine
mhv
mbq
endocannab
##ador
##yletic
mehg
internalizing
nlrp3
##atrial
worry
casts
##140
scalable
##sil
pharmacogenetic
aspirates
peritoneum
coagulase
##inae
placentas
isoleucine
##urely
##utamide
homeobox
depolymer
dma
massachus
adeno
microbub
##onis
syll
##orrected
massachusetts
296
gabapentin
glot
cytokinesis
impregnated
lecithin
##145
quarters
shbg
bisphosphonate
##rospor
predetermined
steroidogenesis
containment
vk
acd
promyelocytic
##retic
vta
microextraction
pound
pi3
454
abduc
gym
##enge
atypia
postsurgical
##amili
coryne
achievements
erb
##ozoite
paa
##oi
streptavidin
##otential
tailoring
sort
##ynchronization
kyphosis
390
unintended
scapular
##omyosin
myri
spermidine
arteriosus
sternal
craniotomy
sponsored
dz
##urv
phrenic
##ubiquitin
3c
invariably
tle
thyl
##eptors
pneumophila
##iliensis
pae
nonresponders
learners
notch1
compositional
cocktail
##ivial
##oplasm
269
naked
clom
ld50
##yrinth
overestimated
likert
##ropylene
vibrations
cyclopent
tcf
##centration
qm
##avastatin
anoxia
choledoch
286
hfs
stoma
##adiene
303
sulfamethoxazole
##oglycer
intratr
cdk4
recalled
vats
##flurane
##grass
morris
##oconazole
typed
##anserin
glabr
##erves
##cement
agenesis
expands
disproportionately
peroneal
satur
##olamine
pathologist
pluripotency
isoprenaline
hospitalised
dus
##ims
hemangioma
##123
inclination
arteriolar
deposit
cartrid
iri
chalc
nirs
tav
nkt
posth
intensively
##lycaemic
##ybdenum
reoxygenation
pockets
ship
canopy
ns3
bulim
proapoptotic
postcon
compress
dmba
cooperativity
hinge
thinner
wastes
migrant
malfunction
appreci
citation
isc
crashes
rosig
yes
##emediation
hiber
21st
scopolamine
tnt
infiltrated
cooled
rafts
dura
##angers
eif4
aurora
trifluoro
##fm
pj
palliation
il6
websites
send
wuhan
repositioning
purple
##overs
271
alga
gingiv
##epo
asking
thromboplastin
protamine
mage
macul
##ocycline
philosophy
maladaptive
secretin
amelioration
p70
vagotomy
##ropion
sterols
exacerbate
rosiglitazone
##uristic
endotox
##front
##atent
glute
avidin
melt
electroencephalogram
hyperinsulinemia
antrum
stm
sleeve
sporulation
giardia
sterility
tegmental
perchlor
vasomotor
incisional
##rolactone
shorten
274
fmlp
##e2
illustrating
##roplas
##ectum
cdr
inlet
glycosaminoglycan
versatility
ppg
ttx
consangu
mdp
cant
lasik
##cet
acrosome
cpd
##evalu
companion
longus
tbp
spatio
autoregulation
fk506
mop
sta
catastroph
488
definitely
thymine
tod
shp
duch
pyros
entang
palpation
##agenous
antisocial
penta
multiform
octyl
##testosterone
agrob
precedes
administrations
##ohyp
osteopontin
northeastern
##atalysts
aspart
conspicuous
teenagers
##aska
fcm
277
exemplified
euthyroid
ffr
##ih
strabismus
##tosis
things
gammadelta
cog
biomimetic
habituation
dth
boxes
eicosan
ecp
##264
dislocations
scholars
constitutional
##aturation
##abilis
phenols
pooling
spermatog
misclass
unfamili
daf
oxidants
paced
##yps
sulfonate
##urd
##obaric
292
thoracolumbar
childbearing
necessitating
##atidic
hepcidin
basket
31p
##zolid
##yltransferase
tolerable
cgy
vaginalis
##months
postc
contingent
sarcolem
conformal
430
hapten
dum
endorsed
##v2
thiobarb
adjustable
masks
ambulance
backsc
distinguishable
4s
endoscope
stocks
##argin
avascular
micrometer
protrusion
topically
intracardiac
misleading
##imeters
chlamydial
galanin
inactivate
fru
##rostr
470
penetrance
krebs
ert
gratings
##xi
nse
constituting
runx2
progestin
laxity
propagating
primordial
hybridisation
perfluor
endogenously
bior
dehydroepi
##idov
biochem
meld
deoxynucle
ointment
kal
subth
dissecting
bubbles
specialised
vortex
suppressors
dicty
##hibition
synaptosomes
pyreth
fats
naoh
alphav
ovariectomy
pons
mares
patell
hybridoma
egypt
lx
##electroph
miniat
menarche
ctgf
##rozole
opson
receives
cd36
cheap
ghz
bmax
dioxygenase
intert
pa€¯
reduct
282
##pert
mam
coactivator
saccade
##ucher
chromaffin
supern
classically
##amivir
oximetry
accompany
grant
incompatibility
##entrifug
revisions
emit
dilutions
cd5
pp2a
##ymia
circumflex
hysteresis
atlant
uncharacterized
##athin
symbol
eri
##qs
rhizosphere
chc
tropism
mrd
discordance
disposable
unavailable
conjunctivitis
cohesion
bred
subspecial
f344
##aterals
participatory
b27
supplying
##otyros
spleens
duk
infarcted
aom
npp
anorectal
amoeb
fw
vagin
299
linolenic
wort
##ipient
rech
mesial
nomogram
cytochalasin
inad
##alfa
featuring
f0
lca
antitub
hydroneph
##iptan
s4
kine
##kinetic
inspiration
calling
mock
mononucle
##aciens
indo
delphi
##health
##apr
bouts
ntp
dabig
protoplasts
coumarin
b10
##romedial
##ylline
mpn
lapse
##with
##yguanosine
##ecretory
##gy
fumarate
pyogenes
matrigel
cme
##erry
declared
avenue
dabigatran
r3
##bosacral
expose
helium
mendelian
extraordinary
##ectral
swing
##elvic
syd
ccl2
unconscious
normals
decisive
ale
aliqu
##roglial
troub
nph
multicomponent
bronchiectasis
rud
dag
##olyl
linezolid
palmitic
540
spectrin
clearing
hpc
methylphenidate
rcs
passively
shadow
45ca
tentatively
##ylon
resides
regenerate
dtc
279
producer
ldlr
binomial
compos
starved
witnessed
oculomotor
fluorophore
vsv
aggr
##beta3
sanger
##arded
alfalfa
hne
phenotyping
allopurinol
##domain
mpm
##port
foref
eco
crosslinked
cumulus
##amilies
desmin
ait
calend
sprint
garlic
macroglobulin
noncomp
perovskite
strata
extran
pdr
desatur
cynomol
##epsy
hibern
shells
cerc
extrapolated
impressive
bullous
occupying
microinj
intensification
instar
##otoler
imprec
##ygb
oliv
elastography
##tines
##ynchus
##lav
correspondingly
inherently
waals
##rier
##itize
##oglutarate
zea
tour
intracellularly
biogenic
##terna
isotopes
polyphenol
##ohydro
##iaxial
fluoroquinolones
antifer
##otrophs
fst
metach
collaterals
acous
omn
tec
##opian
vanadium
ivus
##lr
unacceptable
prk
haw
relieving
sh3
stau
estimator
remnants
indwelling
colocalization
hypochlor
phent
sensitizing
mastoid
controversies
excellence
gras
cyp2c9
##1alpha
trimer
arteriography
##600e
dextrose
acyclovir
hypoperfusion
diptera
sealing
summation
irb
parvum
dehydroepiandrosterone
evar
claudication
raft
asser
riva
##xin
rotated
needing
##phalan
pombe
indolent
zwitter
telangiectasia
diox
apnoea
lithotripsy
minocycline
sorgh
anterograde
##ometrium
goes
abundantly
antit
##ubic
conspecific
centros
remitting
ranitidine
##graphs
gapdh
intraoral
thiobarbituric
preg
bloc
##junction
maximizing
diap
payments
fent
decompensated
cd68
trnas
deregulated
##cyt
tagging
##oplan
dynein
mig
gonads
dispersions
324
##sten
avm
untrained
##105
cataracts
cardiotoxicity
climbing
cens
underline
##ohumeral
polyurethane
enforcement
entorh
trifluoromethyl
haemolytic
lumbosacral
arith
thickened
pex
diatom
lymphoblastoid
logarithmic
##thiaz
nonre
proteus
##acental
mll
hits
undefined
335
ppa
tfp
furan
tritiated
melphalan
olef
uncorrected
mineralocortic
##igma
matters
melanocytic
seminiferous
thylak
tourn
##cha
thuring
additions
normoxic
ginsen
seated
##obese
electroencephalography
putres
disconn
##othre
b19
##asias
spc
12th
biotechnological
noncon
obliteration
345
preformed
electrom
diverged
pyrosequencing
lcs
dish
sublux
##onto
denitrification
molybdenum
fluence
radionuclides
##gap
384
puff
##asy
##itations
notification
triam
fio2
spas
awakening
unemployment
educate
lak
trkb
defec
nonfatal
##accumulation
splenomegaly
rectangular
mtorc1
ltb4
bronchopulmonary
dwell
snack
ultrathin
tritic
clef
##grams
cse
aip
ctls
8th
zidov
rewards
orbitals
hpt
cd15
##acyclines
protracted
l12
hypertensives
neuralgia
annotations
fulfilling
rad51
logarithm
enterovirus
luminescent
hypoxanthine
cheek
clarification
##anciclovir
immunoperoxidase
vocabulary
jobs
provincial
intersection
agrobacterium
malnourished
erps
##win
wilms
introg
server
macros
pho
cga
embr
dissect
##izine
##erian
##acryl
immobility
frontotemporal
intuitive
nicotiana
c5a
undetected
thrombocytopenic
##isole
amitr
recruits
imbalances
ibm
multinucle
disintegr
fucose
zidovudine
##b6
##200
##adelph
impacting
ubiquitously
assembling
nighttime
fingerprints
scrotal
##igmentation
p24
creative
isos
myometrium
lesional
aptt
truth
acromegaly
vps
##ui
tobr
relay
sesqu
lw
stereoselective
potentiates
interchange
cma
efflu
translating
cavitation
##apenta
##ocarpine
formally
ty
bsi
plethysm
##arcin
calories
unpro
apheresis
unsuit
racem
styl
432
283
sdh
precede
rhinosinus
miu
orexin
immunochemical
prs
averages
perist
lactamases
microcys
xyle
undertake
parallels
##urfac
yoga
pursued
lentivirus
monocular
bismuth
complexities
entorhinal
##entery
bronchus
##essel
gip
##rolactin
colombia
hyperglycemic
anterolateral
hydroxyurea
mpr
destabilization
chlorp
5ht
stories
##ymet
accent
neighbouring
inoperable
##asculature
postal
##ynes
myofibroblasts
androstenedione
johnson
batches
850
##ostin
##ulectomy
wheelchair
##ectivities
284
m4
chaotic
masticatory
metatarsal
philadelph
sorghum
otc
transepithelial
ferroc
nonparametric
cytoprotective
sgl
fluoresc
gangliosides
uneventful
tune
reevalu
whate
##bert
chs
lateralis
vinblas
pomc
##lag
disagreement
whatever
really
unve
cooked
disadvantaged
cyto
costimulatory
redes
orr
6h
postpro
synthesised
musculature
transmissible
##iscal
##plus
mineralized
towns
kim
corneum
unidirectional
a€¯0
287
pontine
curett
philipp
disruptions
##iflex
p63
##ozol
isov
rivarox
ruminants
dun
mainland
equimolar
spaw
rhinosinusitis
hepatobiliary
##represented
dock
##ivalence
sales
12p
fault
##odality
triazole
valv
309
tnp
aad
ipl
mainstream
ccp
rhd
vitality
rivaroxaban
mtr
coq
gstm1
ovulatory
distortions
duchenne
scant
colic
wallis
cah
beetle
guides
unreli
radiosensitivity
saved
raters
cements
hydride
philadelphia
manifests
##tinine
##eke
opacity
wmd
abb
fluoroscopic
nonne
bj
zns
##omys
neurites
spiroch
cgi
oryzae
pufas
governmental
britain
intronic
arthritic
neurotrophin
pasture
hypogonadism
nontoxic
306
nanostructured
metic
##urans
impressions
catalysed
palmar
husband
examiner
plotted
tenofovir
overlapped
reserpine
behcet
evenly
guanylate
##amps
flocks
bde
nonl
circumc
impulsive
catchment
##aphase
taa
coronaviruses
##actyly
289
penicillium
utilised
hyperresponsiveness
sbs
camb
coryneb
##olv
##exc
tetradecanoyl
vaccinations
##urant
nanotechnology
prospect
##occus
competitively
estrone
quinine
occurrences
pdz
313
retroviruses
breadth
##hand
##uca
cdp
niches
ropivacaine
hypoplastic
confident
294
fors
electronics
sway
##yxin
oab
teleost
polysomnography
kinesin
lordosis
mre
glucopyranosyl
stools
##exia
snare
297
mud
congo
perine
bronchoconstr
masseter
taiwanese
periplasmic
fee
predictability
##enched
rankin
beings
pret
ventromedial
periapical
insured
coincidence
defibrillation
##male
judge
suturing
coliform
villus
dutp
ota
phosphoprotein
omics
spans
##ropath
##merc
metallo
hypokal
widths
milest
lobar
ucl
desert
##ophenolate
##ferior
nevus
iº
lns
##opulation
318
ecog
flood
krus
progest
thermoreg
cyp2e1
corona
registers
##arctation
##phenol
harris
##alva
invade
mention
neocortical
tard
##teat
ambulation
aplastic
##icon
hyperre
tumorigenicity
deoxyribonucleic
fps
sensations
calcit
tensions
nonunion
cpl
iont
predominated
basel
classifiers
icf
adipogenesis
vinblastine
625
abused
pm10
##pyruvate
transglut
cellularity
joined
endang
heuristic
adrs
mammographic
unfractionated
curettage
coinfection
##arus
impairing
forceps
esterified
premalign
ketoconazole
youn
##ilson
512
recombinants
lir
##ibi
alpha3
999
underscores
dyads
foveal
cynomolgus
pso
subretinal
enterpr
lysosome
deferens
administrated
##oserine
##fetil
triceps
mlr
koh
immunisation
piezoelectric
spur
preventative
assistant
intercon
##metic
appearances
crystallized
microvilli
monooxygenase
voric
##otetr
alloc
stereo
1969
elaboration
##arative
##ria
cvc
##3c
##athion
##ethrin
ally
mrl
spf
admixture
neurobehavioral
ssris
xenobiotics
##flower
tmz
erosions
nls
generalised
satisfy
stx
##itarian
unexposed
haematopoietic
pyrolysis
nonstr
irid
##oconjugates
281
epileptiform
435
underway
##fig
expansions
computations
hyperglycaemia
mumps
spotted
visuospatial
stan
burned
oac
ezh2
voriconazole
lecture
##umes
furn
integrase
peripherally
405
tobramycin
yoh
underestimation
unfamiliar
hcws
radiologically
##anze
##izyg
h3n2
rns
##artite
victoria
arsenite
reminiscent
histogram
etch
striated
##ocolitis
3t
3r
ipd
nonobese
##iliac
ferromagnetic
sudan
##operitoneum
hmw
disciplinary
aµ
appendectomy
##104
##ozolomide
bisexual
##ll
tough
mibg
##oduoden
exams
neutralized
endoderm
neighbourhood
##chondral
clc
conceal
teratoma
##aco
faecium
carboxyp
kilobase
##ublished
d5
hx
assisting
conjunctiva
painless
##127
youngest
##ett
307
premed
shade
cd95
corpora
abutment
ivermectin
ameliorates
micronucleus
unsuitable
ssb
phacoem
antipar
hypertriglyceridemia
icv
dlp
##fb
dissections
##v6
poag
hnr
narratives
parvovirus
tween
##asaki
computers
retinoids
excretory
pseudoaneurysm
##inators
infarctions
bromocr
##algae
##anzees
proves
hyperemia
acyltransferase
chimpanzees
chlorpromazine
indonesia
##opathogenesis
##urement
accepting
races
couplings
checking
##ilation
arithmetic
kinetoch
##gravity
ration
##onitor
thuringiensis
graphs
pyrazol
##idases
doubly
dressings
##bed
marking
##omalacia
tce
experimentation
caught
nephrology
p19
ym
diuresis
bullying
organisational
decontamination
occupy
intercostal
microem
goss
flanked
neuroradi
houses
topo
hydroxydopamine
##ophthalmitis
effluents
323
##benzene
398
puerto
berber
antegr
preferably
phox
##igration
obligatory
dimorphism
##robe
valsalva
1965
mos2
aqp
mbs
tendencies
nanosheets
orthologous
prenatally
##orbital
tsc
reticulocyte
feeds
##acetamide
angeles
pneumocystis
benthic
prolonging
hydroperoxide
trx
##bon
perfring
holter
##type
##ungin
vastus
##azoles
1968
bont
ebna
neuroticism
dmn
hydrostatic
wetland
varicose
gos
indium
pervasive
tibialis
femoris
##hap
flutter
##amellar
vntr
##aci
cachexia
staurospor
hrql
ddr
##a4
decoc
reb
anticipation
io
guil
##2p
##yclo
##7t
pilocarpine
ultracentrifug
tendin
marc
earthquake
##vr
glabrata
stenotic
eac
fallopian
intrathoracic
vat
naprox
bisphenol
sirs
dihydroxyphenyl
transrectal
drow
nests
dca
polypropylene
phacoemulsification
peo
radiographically
analogy
parsim
putrescine
##aluable
burkitt
subsurface
reserves
autofluorescence
northwest
nihss
qc
beer
##ulinic
bathing
aptamers
genuine
insular
##ries
chemoresistance
naphthyl
hoped
mfs
pupils
waking
intuss
rads
burkholder
intoxic
##kel
prein
entrapped
##eca
temozolomide
avf
##rance
digits
gelatinase
prolyl
paraquat
calcitriol
exponent
dans
##util
e1a
biologics
##afe
perforations
unpublished
##openem
560
##q1
violet
3m
mycophenolate
ppis
urethane
intubated
flask
logmar
js
bav
reversion
phytoplankton
cotyled
kaw
tcd
abolish
cefota
polio
##ocerc
wilson
##bian
polyadenylation
functionalities
assistants
##irradi
##osupp
mpfc
committees
neurofilament
rehydr
resistive
multiforme
355
promises
ddd
amphibian
fow
portugal
ns1
desicc
dihydrotestosterone
hydrate
pugh
##eptidyl
financing
##ospheres
maneuvers
hdr
gct
pik3ca
amnesia
periodicity
hyperlipid
##liers
recurring
hamstring
parth
cimt
occupations
insecurity
ppc
dibutyryl
##crt
cloac
inadvert
t6
##pb
lycopene
ecori
lifetimes
##apentaenoic
p0
brushing
resistances
314
soldiers
diminishing
ate
pemphigus
cleave
phototherapy
##rocar
##alys
opacities
c60
tdi
taut
communicable
arbor
herni
proteobacteria
infinity
##lutide
necessitates
thereof
sorbent
quintile
print
intermed
cholesteat
steam
deltag
dialogue
perforator
amended
##anthus
pans
fertilizer
wga
malocclusion
carinii
antegrade
brucellosis
photography
pads
##urative
##ultures
intussus
dermatologists
ror
concentrating
autophosphorylation
clerks
diterp
asm
emuls
immigration
##orters
nscs
chondros
aha
energetics
##urp
intestines
thermodynamics
ensuing
abcb1
[...]
